#pragma once

#include <cstdint>

const uint8_t layer_0[] = {
28, 0, 0, 0, 84, 70, 76, 51, 20, 0, 32, 0, 28, 0, 24, 0, 20, 0, 16, 0, 12, 0, 0, 0, 8, 0, 4, 0, 20, 0, 0, 0, 28, 0, 0, 0, 152, 0, 0, 0, 240, 0, 0, 0, 192, 149, 0, 0, 208, 149, 0, 0, 124, 152, 0, 0, 3, 0, 0, 0, 1, 0, 0, 0, 16, 0, 0, 0, 0, 0, 10, 0, 16, 0, 12, 0, 8, 0, 4, 0, 10, 0, 0, 0, 12, 0, 0, 0, 28, 0, 0, 0, 60, 0, 0, 0, 15, 0, 0, 0, 115, 101, 114, 118, 105, 110, 103, 95, 100, 101, 102, 97, 117, 108, 116, 0, 1, 0, 0, 0, 4, 0, 0, 0, 144, 255, 255, 255, 3, 0, 0, 0, 4, 0, 0, 0, 8, 0, 0, 0, 111, 117, 116, 112, 117, 116, 95, 48, 0, 0, 0, 0, 1, 0, 0, 0, 4, 0, 0, 0, 206, 253, 255, 255, 4, 0, 0, 0, 15, 0, 0, 0, 107, 101, 114, 97, 115, 95, 116, 101, 110, 115, 111, 114, 95, 51, 49, 0, 2, 0, 0, 0, 52, 0, 0, 0, 4, 0, 0, 0, 220, 255, 255, 255, 6, 0, 0, 0, 4, 0, 0, 0, 19, 0, 0, 0, 67, 79, 78, 86, 69, 82, 83, 73, 79, 78, 95, 77, 69, 84, 65, 68, 65, 84, 65, 0, 8, 0, 12, 0, 8, 0, 4, 0, 8, 0, 0, 0, 5, 0, 0, 0, 4, 0, 0, 0, 19, 0, 0, 0, 109, 105, 110, 95, 114, 117, 110, 116, 105, 109, 101, 95, 118, 101, 114, 115, 105, 111, 110, 0, 7, 0, 0, 0, 204, 148, 0, 0, 196, 148, 0, 0, 180, 1, 0, 0, 156, 0, 0, 0, 148, 0, 0, 0, 116, 0, 0, 0, 4, 0, 0, 0, 102, 254, 255, 255, 4, 0, 0, 0, 96, 0, 0, 0, 16, 0, 0, 0, 0, 0, 0, 0, 8, 0, 14, 0, 8, 0, 4, 0, 8, 0, 0, 0, 16, 0, 0, 0, 36, 0, 0, 0, 0, 0, 6, 0, 8, 0, 4, 0, 6, 0, 0, 0, 4, 0, 0, 0, 0, 0, 0, 0, 12, 0, 24, 0, 20, 0, 16, 0, 12, 0, 4, 0, 12, 0, 0, 0, 129, 239, 186, 151, 64, 158, 74, 62, 2, 0, 0, 0, 2, 0, 0, 0, 4, 0, 0, 0, 6, 0, 0, 0, 50, 46, 49, 55, 46, 48, 0, 0, 210, 254, 255, 255, 4, 0, 0, 0, 16, 0, 0, 0, 49, 46, 53, 46, 48, 0, 0, 0, 0, 0, 0, 0, 0, 0, 0, 0, 84, 105, 255, 255, 242, 254, 255, 255, 4, 0, 0, 0, 0, 1, 0, 0, 0, 0, 0, 0, 0, 0, 0, 0, 0, 0, 0, 0, 0, 0, 0, 0, 0, 0, 0, 0, 0, 0, 0, 0, 0, 0, 0, 0, 0, 0, 0, 0, 0, 0, 0, 0, 0, 0, 0, 0, 0, 0, 0, 0, 0, 0, 0, 0, 0, 0, 0, 0, 0, 0, 0, 0, 0, 0, 0, 0, 0, 0, 0, 0, 0, 0, 0, 0, 0, 0, 0, 0, 0, 0, 0, 0, 0, 0, 0, 0, 0, 0, 0, 0, 0, 0, 0, 0, 0, 0, 0, 0, 0, 0, 0, 0, 0, 0, 0, 0, 0, 0, 0, 0, 0, 0, 0, 0, 0, 0, 0, 0, 0, 0, 0, 0, 0, 0, 0, 0, 0, 0, 0, 0, 0, 0, 0, 0, 0, 0, 0, 0, 0, 0, 0, 0, 0, 0, 0, 0, 0, 0, 0, 0, 0, 0, 0, 0, 0, 0, 0, 0, 0, 0, 0, 0, 0, 0, 0, 0, 0, 0, 0, 0, 0, 0, 0, 0, 0, 0, 0, 0, 0, 0, 0, 0, 0, 0, 0, 0, 0, 0, 0, 0, 0, 0, 0, 0, 0, 0, 0, 0, 0, 0, 0, 0, 0, 0, 0, 0, 0, 0, 0, 0, 0, 0, 0, 0, 0, 0, 0, 0, 0, 0, 0, 0, 0, 0, 0, 0, 0, 0, 0, 0, 0, 0, 0, 0, 0, 0, 0, 0, 0, 0, 0, 0, 0, 0, 0, 0, 0, 0, 0, 0, 0, 0, 0, 0, 0, 0, 0, 0, 0, 0, 0, 0, 0, 0, 6, 0, 8, 0, 4, 0, 6, 0, 0, 0, 4, 0, 0, 0, 0, 147, 0, 0, 86, 224, 37, 189, 183, 214, 1, 189, 14, 106, 42, 189, 143, 243, 33, 61, 172, 182, 224, 188, 88, 67, 60, 188, 111, 210, 35, 61, 64, 12, 106, 59, 168, 197, 146, 59, 166, 39, 131, 60, 98, 240, 195, 60, 38, 155, 134, 60, 104, 7, 44, 60, 18, 135, 135, 60, 90, 5, 231, 60, 88, 137, 249, 188, 4, 98, 18, 188, 128, 100, 78, 60, 236, 35, 4, 189, 212, 165, 33, 188, 155, 228, 8, 61, 244, 78, 30, 188, 128, 59, 87, 186, 176, 205, 187, 59, 196, 56, 150, 60, 202, 161, 15, 189, 154, 211, 173, 60, 48, 189, 120, 60, 43, 165, 10, 189, 181, 55, 173, 188, 246, 103, 205, 60, 100, 198, 27, 188, 20, 33, 146, 188, 112, 180, 183, 59, 134, 113, 17, 189, 213, 159, 10, 189, 212, 253, 72, 60, 12, 162, 72, 60, 0, 147, 111, 60, 0, 94, 25, 189, 114, 11, 179, 60, 106, 111, 225, 188, 26, 107, 222, 60, 138, 210, 62, 188, 144, 84, 106, 59, 216, 68, 239, 59, 37, 44, 42, 189, 41, 2, 28, 61, 148, 69, 24, 189, 116, 194, 135, 60, 114, 112, 176, 60, 194, 93, 227, 188, 48, 93, 130, 60, 144, 15, 200, 59, 80, 252, 44, 59, 193, 47, 177, 188, 19, 235, 33, 61, 38, 6, 148, 188, 136, 255, 144, 60, 222, 33, 101, 188, 8, 189, 6, 189, 72, 128, 42, 60, 160, 120, 27, 187, 250, 71, 75, 188, 35, 98, 2, 61, 36, 99, 73, 60, 71, 152, 0, 61, 25, 92, 37, 189, 184, 93, 129, 59, 39, 131, 17, 61, 238, 47, 223, 188, 240, 246, 169, 59, 213, 60, 21, 61, 207, 94, 11, 61, 103, 160, 171, 188, 216, 142, 28, 60, 70, 17, 246, 60, 35, 94, 24, 189, 42, 236, 209, 60, 189, 115, 35, 61, 152, 139, 14, 189, 138, 63, 249, 188, 100, 225, 16, 188, 234, 253, 68, 188, 198, 35, 150, 188, 186, 16, 150, 60, 78, 218, 248, 188, 134, 23, 142, 60, 80, 175, 182, 187, 157, 252, 2, 189, 32, 32, 162, 186, 158, 39, 205, 60, 186, 37, 184, 60, 110, 245, 13, 189, 126, 140, 188, 188, 96, 32, 142, 58, 104, 25, 69, 60, 64, 208, 33, 189, 178, 212, 158, 188, 163, 109, 44, 61, 64, 193, 207, 187, 152, 64, 230, 187, 208, 222, 153, 59, 158, 193, 5, 189, 152, 235, 181, 59, 168, 196, 224, 187, 198, 24, 244, 188, 183, 92, 14, 189, 240, 123, 37, 59, 176, 35, 6, 187, 240, 116, 34, 59, 125, 236, 190, 188, 115, 92, 15, 189, 253, 77, 164, 188, 178, 188, 162, 60, 103, 94, 140, 188, 166, 20, 176, 60, 192, 33, 93, 58, 219, 167, 3, 61, 116, 78, 0, 60, 192, 198, 102, 60, 82, 123, 191, 60, 100, 90, 40, 188, 214, 44, 34, 189, 110, 197, 241, 188, 88, 205, 203, 59, 64, 115, 245, 58, 222, 109, 9, 189, 135, 75, 14, 61, 103, 13, 40, 61, 168, 33, 173, 59, 54, 143, 78, 188, 96, 46, 206, 58, 24, 240, 210, 59, 156, 159, 67, 60, 64, 17, 39, 60, 85, 0, 28, 61, 108, 8, 46, 60, 55, 189, 145, 188, 224, 216, 41, 60, 176, 166, 157, 187, 182, 39, 224, 60, 152, 33, 1, 188, 205, 232, 169, 188, 87, 168, 146, 188, 110, 196, 148, 188, 28, 179, 18, 60, 51, 169, 39, 189, 6, 158, 92, 188, 172, 50, 48, 188, 141, 8, 20, 189, 52, 76, 19, 60, 212, 104, 105, 60, 32, 197, 227, 186, 32, 200, 132, 60, 114, 243, 67, 188, 76, 193, 51, 60, 160, 254, 129, 59, 232, 97, 250, 59, 97, 12, 3, 61, 96, 48, 103, 60, 174, 118, 253, 60, 10, 80, 150, 188, 26, 104, 169, 188, 220, 252, 79, 60, 124, 130, 255, 188, 58, 198, 200, 188, 16, 173, 135, 59, 178, 51, 208, 60, 216, 94, 9, 189, 140, 98, 235, 188, 97, 127, 163, 188, 184, 33, 166, 59, 224, 22, 161, 188, 160, 116, 215, 58, 179, 215, 171, 188, 28, 185, 74, 60, 171, 160, 22, 61, 193, 13, 9, 61, 30, 209, 79, 188, 42, 93, 241, 60, 3, 136, 38, 61, 50, 127, 121, 188, 207, 218, 35, 189, 96, 177, 32, 189, 28, 72, 25, 189, 234, 17, 223, 60, 214, 138, 155, 60, 207, 165, 14, 61, 23, 14, 5, 61, 224, 175, 153, 188, 111, 85, 220, 188, 50, 12, 195, 60, 109, 40, 38, 61, 113, 176, 45, 61, 88, 68, 58, 60, 86, 166, 222, 188, 240, 229, 128, 187, 141, 146, 157, 188, 84, 4, 36, 60, 157, 252, 11, 61, 235, 154, 140, 188, 141, 155, 12, 61, 100, 74, 121, 60, 88, 34, 164, 59, 19, 52, 25, 61, 168, 90, 38, 189, 3, 189, 19, 189, 113, 95, 16, 61, 53, 106, 33, 61, 202, 106, 224, 188, 128, 148, 198, 185, 196, 167, 32, 188, 196, 229, 35, 189, 202, 219, 194, 60, 210, 140, 32, 189, 58, 81, 6, 189, 84, 19, 81, 60, 120, 186, 24, 189, 153, 250, 218, 188, 150, 228, 225, 60, 144, 111, 44, 59, 250, 155, 252, 60, 57, 234, 25, 61, 172, 104, 52, 60, 0, 186, 52, 59, 236, 25, 125, 60, 48, 177, 247, 187, 239, 148, 17, 61, 163, 135, 132, 188, 224, 82, 22, 189, 32, 224, 206, 187, 113, 180, 35, 61, 112, 65, 208, 187, 173, 191, 46, 61, 50, 52, 165, 60, 164, 9, 39, 60, 120, 252, 172, 59, 120, 211, 149, 60, 255, 180, 160, 188, 109, 134, 6, 61, 82, 253, 169, 60, 154, 157, 249, 60, 0, 36, 253, 57, 46, 136, 175, 60, 0, 36, 178, 59, 126, 2, 192, 60, 31, 46, 42, 61, 56, 220, 236, 187, 58, 78, 204, 188, 140, 191, 71, 188, 128, 188, 125, 187, 0, 0, 33, 184, 50, 199, 221, 60, 234, 212, 192, 188, 128, 214, 204, 185, 16, 69, 96, 60, 240, 131, 242, 59, 54, 55, 10, 189, 109, 34, 4, 189, 110, 54, 207, 60, 107, 111, 11, 61, 36, 50, 90, 188, 176, 201, 90, 60, 110, 40, 203, 60, 180, 55, 4, 189, 229, 164, 37, 61, 128, 214, 181, 57, 204, 19, 34, 189, 132, 118, 68, 60, 224, 178, 47, 187, 97, 162, 45, 189, 99, 131, 19, 61, 142, 60, 96, 188, 134, 237, 43, 189, 44, 182, 0, 188, 182, 224, 174, 60, 100, 251, 204, 188, 166, 86, 178, 60, 156, 112, 61, 188, 19, 170, 162, 188, 94, 90, 26, 189, 106, 75, 139, 60, 3, 90, 0, 61, 44, 152, 119, 60, 225, 136, 44, 61, 168, 163, 93, 60, 46, 249, 203, 60, 51, 161, 22, 61, 118, 211, 242, 188, 99, 131, 27, 61, 202, 216, 31, 189, 96, 248, 154, 59, 184, 155, 174, 59, 134, 15, 187, 188, 240, 146, 141, 187, 105, 109, 5, 61, 61, 117, 34, 61, 120, 72, 37, 188, 183, 214, 1, 61, 61, 1, 30, 61, 192, 162, 16, 186, 197, 11, 6, 61, 190, 101, 218, 188, 24, 241, 35, 189, 80, 44, 127, 187, 96, 198, 228, 186, 18, 42, 238, 60, 24, 118, 238, 188, 164, 109, 30, 60, 208, 185, 255, 187, 32, 76, 212, 58, 232, 170, 14, 188, 160, 99, 238, 188, 16, 149, 205, 59, 184, 221, 84, 60, 143, 141, 21, 189, 95, 135, 17, 189, 4, 239, 38, 60, 224, 34, 40, 189, 92, 41, 234, 188, 138, 56, 133, 60, 128, 85, 178, 187, 80, 109, 76, 187, 146, 125, 235, 60, 214, 32, 177, 60, 131, 169, 219, 188, 106, 103, 240, 60, 98, 143, 199, 60, 252, 148, 133, 60, 184, 54, 152, 187, 0, 249, 20, 185, 80, 201, 39, 189, 116, 199, 153, 188, 68, 252, 17, 60, 107, 217, 43, 61, 96, 84, 139, 187, 146, 69, 230, 60, 31, 90, 32, 61, 66, 12, 237, 188, 80, 200, 7, 60, 226, 71, 186, 60, 58, 8, 228, 188, 206, 47, 213, 60, 40, 36, 25, 189, 158, 131, 130, 60, 97, 169, 1, 61, 218, 208, 178, 60, 232, 122, 250, 188, 40, 229, 215, 187, 102, 71, 238, 60, 53, 9, 40, 61, 96, 154, 89, 60, 130, 141, 243, 60, 80, 230, 36, 59, 202, 145, 132, 188, 35, 54, 34, 189, 128, 185, 148, 186, 58, 116, 225, 188, 117, 184, 44, 61, 124, 222, 255, 188, 194, 246, 171, 188, 79, 147, 158, 188, 155, 34, 39, 61, 232, 147, 195, 187, 117, 119, 172, 188, 124, 47, 152, 60, 44, 200, 88, 60, 128, 125, 99, 187, 203, 222, 30, 61, 252, 158, 208, 188, 183, 112, 13, 61, 156, 23, 4, 60, 96, 198, 0, 59, 148, 241, 18, 60, 26, 199, 142, 60, 94, 0, 161, 188, 31, 16, 34, 61, 110, 109, 11, 189, 179, 176, 148, 188, 77, 16, 45, 61, 142, 69, 234, 60, 32, 91, 183, 188, 234, 163, 223, 60, 18, 147, 205, 60, 174, 106, 232, 60, 191, 146, 191, 188, 48, 42, 206, 59, 239, 34, 197, 188, 179, 153, 160, 188, 112, 161, 66, 59, 84, 126, 3, 189, 232, 171, 197, 59, 175, 131, 20, 61, 11, 247, 25, 61, 116, 24, 141, 188, 60, 239, 86, 60, 122, 23, 125, 188, 34, 160, 35, 189, 148, 74, 7, 189, 126, 62, 188, 60, 34, 247, 44, 189, 144, 86, 78, 188, 136, 19, 245, 59, 80, 51, 80, 60, 44, 1, 228, 188, 176, 247, 124, 187, 211, 142, 202, 188, 8, 171, 79, 60, 0, 239, 138, 57, 64, 44, 222, 59, 163, 225, 19, 189, 0, 58, 196, 56, 143, 25, 43, 189, 0, 75, 41, 57, 191, 56, 194, 188, 137, 16, 5, 61, 179, 65, 31, 189, 158, 31, 169, 188, 248, 79, 31, 189, 38, 226, 147, 60, 128, 0, 84, 186, 38, 32, 31, 189, 190, 22, 215, 60, 164, 58, 83, 60, 101, 9, 38, 61, 204, 205, 212, 188, 192, 185, 174, 59, 74, 222, 221, 188, 8, 12, 212, 188, 226, 127, 196, 60, 153, 226, 139, 188, 208, 35, 179, 187, 146, 35, 12, 189, 40, 101, 45, 60, 86, 138, 180, 60, 24, 155, 70, 188, 72, 132, 8, 60, 80, 13, 116, 188, 140, 133, 82, 60, 153, 161, 8, 61, 221, 73, 38, 189, 200, 31, 92, 188, 170, 139, 192, 60, 109, 22, 175, 188, 112, 146, 195, 187, 134, 198, 231, 60, 128, 95, 32, 58, 248, 27, 146, 188, 110, 160, 164, 60, 116, 7, 100, 188, 106, 140, 175, 60, 205, 62, 19, 189, 38, 110, 171, 60, 134, 200, 43, 189, 53, 136, 177, 188, 16, 0, 108, 60, 208, 183, 171, 187, 88, 193, 79, 188, 209, 41, 42, 61, 2, 229, 249, 60, 130, 167, 154, 188, 44, 166, 41, 60, 13, 171, 193, 188, 50, 231, 193, 60, 229, 131, 26, 61, 35, 141, 44, 61, 72, 207, 6, 188, 177, 1, 29, 61, 203, 112, 224, 188, 82, 41, 195, 60, 208, 200, 106, 187, 43, 80, 20, 61, 12, 147, 50, 60, 171, 107, 44, 61, 184, 95, 9, 188, 114, 22, 0, 189, 80, 250, 76, 60, 58, 220, 220, 188, 104, 235, 160, 187, 151, 136, 23, 189, 0, 34, 172, 188, 176, 181, 251, 59, 175, 2, 42, 61, 190, 17, 37, 189, 130, 185, 245, 60, 6, 221, 243, 60, 110, 167, 199, 60, 125, 8, 31, 61, 178, 164, 244, 188, 130, 247, 201, 60, 224, 211, 64, 187, 224, 11, 191, 58, 48, 130, 20, 189, 87, 50, 141, 188, 35, 54, 30, 61, 80, 221, 45, 59, 72, 142, 253, 188, 88, 36, 1, 188, 122, 235, 219, 60, 229, 47, 178, 188, 182, 227, 165, 60, 8, 177, 133, 60, 82, 199, 246, 188, 22, 134, 151, 60, 206, 123, 219, 60, 54, 210, 217, 60, 25, 79, 255, 188, 87, 196, 24, 61, 39, 76, 32, 61, 32, 151, 138, 58, 81, 254, 198, 188, 99, 120, 29, 61, 55, 246, 24, 61, 62, 45, 17, 189, 51, 57, 13, 189, 34, 89, 188, 60, 142, 11, 232, 60, 79, 63, 44, 61, 32, 242, 2, 59, 108, 170, 24, 188, 244, 215, 31, 60, 182, 247, 168, 188, 62, 83, 93, 188, 57, 219, 15, 61, 168, 14, 221, 59, 95, 225, 17, 189, 48, 193, 232, 188, 48, 137, 110, 188, 181, 28, 35, 61, 192, 2, 184, 59, 60, 12, 209, 188, 204, 18, 138, 60, 232, 75, 173, 188, 196, 55, 23, 188, 174, 111, 172, 188, 11, 230, 1, 61, 41, 13, 42, 189, 50, 120, 243, 60, 102, 188, 145, 60, 214, 207, 179, 188, 52, 55, 5, 189, 18, 54, 40, 189, 140, 213, 136, 60, 248, 62, 140, 187, 162, 249, 180, 60, 57, 193, 41, 189, 154, 119, 67, 188, 87, 177, 20, 189, 16, 82, 235, 187, 4, 147, 110, 188, 125, 98, 20, 189, 42, 220, 86, 188, 45, 37, 37, 189, 1, 67, 196, 188, 112, 244, 250, 59, 145, 22, 47, 189, 144, 222, 144, 59, 162, 244, 168, 60, 208, 189, 97, 59, 114, 198, 224, 188, 46, 64, 36, 189, 8, 35, 234, 188, 205, 208, 243, 188, 121, 35, 8, 189, 208, 104, 136, 188, 192, 207, 33, 187, 88, 52, 201, 187, 184, 231, 161, 59, 117, 117, 4, 189, 229, 216, 22, 189, 102, 185, 197, 60, 213, 172, 8, 61, 126, 0, 244, 60, 44, 14, 29, 189, 104, 215, 215, 187, 196, 53, 123, 60, 16, 215, 39, 188, 154, 94, 238, 60, 60, 190, 46, 188, 136, 83, 50, 60, 188, 56, 159, 60, 215, 213, 153, 188, 92, 136, 83, 60, 121, 208, 19, 189, 246, 84, 208, 188, 10, 147, 200, 60, 214, 168, 84, 188, 120, 3, 17, 60, 241, 245, 2, 61, 190, 214, 235, 188, 48, 7, 0, 188, 66, 62, 207, 60, 44, 138, 27, 189, 178, 247, 137, 60, 224, 242, 177, 186, 0, 223, 150, 57, 40, 103, 207, 59, 10, 165, 3, 189, 166, 176, 181, 60, 201, 218, 43, 61, 222, 187, 3, 189, 72, 18, 178, 187, 55, 114, 199, 188, 206, 65, 142, 60, 96, 113, 227, 186, 158, 8, 183, 60, 120, 138, 247, 59, 80, 229, 50, 59, 224, 59, 33, 187, 255, 130, 132, 188, 62, 78, 8, 189, 11, 159, 16, 189, 70, 43, 216, 60, 98, 206, 185, 60, 82, 161, 216, 60, 243, 149, 155, 188, 176, 9, 248, 187, 25, 205, 157, 188, 22, 138, 189, 60, 9, 72, 4, 189, 128, 25, 39, 60, 74, 50, 166, 188, 37, 89, 25, 61, 4, 158, 24, 60, 29, 89, 16, 61, 8, 192, 179, 187, 122, 221, 75, 188, 224, 64, 183, 58, 220, 127, 62, 60, 225, 79, 4, 189, 18, 214, 214, 188, 28, 182, 1, 188, 226, 83, 225, 60, 110, 109, 169, 60, 224, 161, 129, 60, 16, 120, 247, 59, 206, 206, 145, 188, 28, 123, 134, 60, 60, 153, 28, 60, 6, 107, 252, 60, 4, 57, 134, 60, 214, 90, 17, 189, 0, 213, 48, 58, 184, 53, 31, 188, 64, 45, 224, 188, 133, 50, 130, 188, 93, 41, 25, 61, 180, 59, 24, 189, 77, 50, 215, 188, 192, 146, 188, 186, 214, 83, 155, 188, 120, 36, 150, 187, 242, 197, 148, 60, 168, 63, 137, 188, 18, 96, 24, 189, 217, 210, 27, 189, 54, 225, 10, 189, 151, 208, 29, 61, 239, 164, 1, 61, 116, 133, 241, 188, 233, 247, 147, 188, 142, 215, 227, 60, 190, 210, 167, 188, 237, 171, 199, 188, 141, 45, 24, 61, 13, 114, 36, 61, 205, 175, 23, 61, 3, 71, 5, 61, 141, 82, 145, 188, 196, 220, 57, 188, 38, 129, 188, 60, 130, 108, 178, 60, 24, 146, 80, 188, 49, 101, 1, 61, 246, 51, 174, 60, 56, 8, 16, 189, 32, 177, 119, 59, 192, 189, 198, 187, 16, 132, 244, 59, 144, 175, 247, 188, 0, 110, 19, 186, 220, 213, 254, 188, 128, 144, 80, 59, 232, 58, 216, 188, 98, 6, 252, 60, 234, 204, 29, 189, 8, 37, 129, 59, 219, 51, 23, 61, 118, 198, 134, 60, 0, 132, 161, 187, 162, 41, 226, 60, 6, 103, 240, 60, 82, 25, 190, 60, 9, 35, 10, 61, 214, 232, 236, 60, 35, 55, 134, 188, 0, 148, 254, 185, 210, 96, 218, 60, 220, 235, 49, 188, 200, 231, 62, 60, 66, 126, 234, 60, 111, 253, 18, 61, 104, 47, 58, 60, 228, 151, 5, 188, 207, 26, 177, 188, 152, 114, 63, 188, 30, 154, 77, 188, 148, 68, 245, 188, 64, 158, 108, 58, 216, 32, 104, 60, 157, 201, 145, 188, 240, 221, 178, 187, 9, 62, 37, 189, 244, 162, 140, 188, 176, 233, 153, 59, 62, 203, 169, 60, 104, 22, 187, 188, 133, 179, 25, 61, 84, 235, 6, 189, 92, 223, 7, 189, 33, 133, 31, 61, 121, 0, 155, 188, 244, 134, 58, 60, 86, 16, 215, 188, 136, 168, 20, 188, 47, 207, 186, 188, 200, 180, 4, 189, 248, 95, 182, 187, 117, 91, 29, 61, 49, 249, 11, 61, 50, 65, 240, 60, 230, 139, 1, 189, 5, 209, 32, 189, 82, 85, 158, 188, 230, 173, 160, 188, 200, 13, 207, 59, 90, 94, 165, 188, 16, 82, 0, 59, 179, 172, 249, 188, 21, 176, 35, 61, 210, 117, 238, 188, 85, 189, 23, 61, 158, 60, 183, 60, 194, 114, 92, 188, 42, 142, 120, 188, 162, 177, 43, 189, 2, 13, 170, 188, 52, 21, 110, 60, 222, 114, 218, 60, 102, 164, 24, 189, 35, 82, 166, 188, 42, 34, 201, 60, 86, 190, 26, 189, 248, 167, 212, 187, 223, 123, 10, 61, 70, 253, 4, 189, 80, 24, 4, 189, 134, 53, 143, 60, 184, 247, 67, 188, 98, 55, 157, 60, 128, 242, 175, 58, 108, 93, 40, 188, 112, 157, 95, 188, 100, 128, 150, 60, 62, 216, 158, 60, 212, 141, 147, 60, 71, 140, 32, 189, 224, 29, 36, 59, 192, 172, 218, 58, 64, 40, 43, 60, 38, 172, 234, 60, 240, 165, 124, 187, 72, 151, 6, 188, 184, 95, 49, 188, 0, 28, 39, 185, 152, 238, 12, 188, 162, 114, 204, 60, 118, 65, 207, 60, 152, 176, 133, 187, 3, 3, 3, 61, 168, 153, 201, 59, 24, 66, 0, 189, 166, 188, 25, 189, 190, 200, 237, 188, 90, 156, 174, 60, 29, 18, 8, 61, 208, 56, 17, 188, 37, 209, 27, 61, 176, 216, 13, 59, 139, 149, 45, 61, 80, 138, 156, 59, 19, 30, 16, 61, 48, 176, 123, 59, 162, 109, 15, 189, 96, 137, 176, 186, 29, 113, 206, 188, 192, 58, 26, 59, 100, 220, 117, 60, 17, 105, 221, 188, 21, 195, 35, 61, 28, 12, 27, 189, 156, 16, 141, 188, 124, 161, 220, 188, 236, 231, 17, 189, 112, 22, 79, 59, 22, 149, 148, 60, 104, 15, 207, 59, 32, 50, 141, 60, 226, 29, 248, 188, 168, 41, 215, 59, 40, 75, 209, 59, 59, 243, 35, 61, 56, 78, 215, 188, 34, 225, 210, 60, 64, 105, 72, 58, 182, 102, 232, 60, 168, 5, 7, 189, 78, 162, 11, 189, 229, 11, 3, 189, 60, 183, 237, 188, 48, 178, 176, 187, 155, 139, 9, 61, 23, 28, 20, 189, 29, 119, 18, 189, 70, 220, 213, 60, 76, 14, 84, 188, 246, 187, 103, 188, 194, 11, 235, 60, 170, 219, 156, 188, 90, 47, 79, 188, 10, 121, 144, 188, 0, 219, 114, 185, 78, 240, 207, 60, 180, 35, 93, 188, 87, 17, 40, 189, 25, 93, 130, 188, 128, 237, 26, 189, 198, 54, 13, 189, 52, 16, 250, 188, 40, 47, 5, 188, 6, 156, 253, 60, 184, 103, 1, 60, 91, 67, 19, 61, 203, 58, 24, 61, 141, 225, 34, 61, 60, 9, 126, 60, 204, 250, 17, 189, 7, 166, 36, 61, 180, 155, 25, 188, 77, 22, 221, 188, 55, 246, 42, 61, 192, 228, 119, 59, 66, 217, 131, 60, 234, 122, 191, 60, 92, 132, 125, 60, 82, 164, 130, 60, 184, 31, 149, 60, 214, 162, 17, 189, 161, 174, 176, 188, 45, 180, 17, 61, 47, 7, 153, 188, 32, 56, 108, 59, 56, 252, 202, 59, 105, 35, 24, 189, 54, 87, 141, 188, 242, 156, 227, 188, 12, 162, 12, 189, 58, 122, 242, 60, 151, 58, 6, 189, 170, 177, 62, 188, 112, 79, 41, 60, 98, 240, 254, 188, 72, 123, 21, 189, 84, 72, 2, 60, 91, 246, 41, 61, 197, 244, 167, 188, 200, 167, 46, 60, 205, 29, 179, 188, 130, 17, 147, 60, 72, 95, 144, 60, 91, 143, 32, 189, 185, 114, 181, 188, 254, 221, 10, 189, 121, 98, 234, 188, 104, 196, 146, 60, 30, 209, 207, 60, 0, 17, 59, 188, 98, 193, 159, 60, 82, 95, 4, 189, 40, 101, 231, 188, 137, 110, 13, 61, 96, 188, 189, 186, 28, 99, 100, 60, 140, 250, 6, 188, 23, 65, 33, 189, 0, 112, 65, 58, 27, 103, 14, 61, 111, 61, 16, 61, 38, 174, 67, 188, 100, 108, 116, 60, 128, 61, 233, 185, 128, 215, 6, 188, 158, 137, 234, 60, 176, 215, 109, 60, 53, 233, 185, 188, 21, 152, 230, 188, 96, 71, 186, 187, 82, 176, 246, 188, 200, 91, 165, 187, 165, 67, 25, 61, 204, 181, 76, 60, 18, 45, 210, 60, 11, 178, 251, 188, 129, 61, 237, 188, 232, 160, 218, 59, 26, 70, 203, 60, 152, 148, 86, 188, 0, 44, 108, 186, 138, 166, 179, 188, 46, 1, 207, 188, 136, 84, 89, 60, 222, 178, 246, 188, 208, 21, 103, 59, 17, 168, 192, 188, 232, 212, 250, 187, 206, 29, 169, 60, 198, 59, 146, 60, 115, 215, 1, 61, 100, 224, 14, 188, 120, 105, 222, 187, 218, 209, 4, 189, 164, 122, 99, 60, 121, 151, 6, 61, 140, 220, 122, 60, 88, 243, 41, 188, 1, 162, 13, 61, 175, 207, 19, 61, 34, 181, 217, 60, 176, 78, 124, 60, 202, 161, 217, 60, 12, 116, 19, 188, 7, 40, 7, 61, 160, 76, 135, 59, 47, 145, 18, 61, 80, 206, 98, 188, 240, 14, 235, 187, 111, 251, 208, 188, 0, 70, 196, 59, 60, 155, 229, 188, 174, 153, 78, 188, 139, 119, 16, 61, 148, 58, 138, 60, 98, 113, 194, 60, 201, 229, 143, 188, 88, 188, 107, 60, 22, 14, 238, 188, 10, 218, 19, 189, 248, 35, 197, 187, 78, 36, 191, 60, 11, 107, 3, 61, 74, 79, 233, 60, 239, 242, 187, 188, 162, 81, 205, 60, 0, 104, 65, 187, 187, 40, 43, 61, 13, 248, 16, 61, 82, 177, 228, 60, 30, 90, 219, 60, 98, 135, 255, 60, 0, 154, 60, 188, 109, 167, 200, 188, 234, 89, 207, 60, 84, 11, 21, 60, 78, 153, 73, 188, 48, 254, 5, 188, 85, 228, 141, 188, 25, 228, 28, 189, 224, 55, 254, 59, 28, 217, 10, 189, 14, 41, 164, 188, 175, 44, 2, 61, 236, 163, 32, 60, 144, 31, 164, 188, 89, 169, 45, 189, 215, 58, 26, 61, 91, 199, 18, 189, 254, 217, 144, 60, 18, 172, 202, 60, 40, 222, 111, 60, 32, 242, 82, 59, 5, 234, 42, 61, 46, 129, 245, 60, 215, 126, 17, 61, 118, 33, 213, 60, 114, 3, 205, 60, 184, 144, 133, 59, 16, 190, 123, 59, 241, 149, 43, 61, 84, 95, 58, 60, 202, 178, 253, 60, 6, 217, 241, 60, 88, 129, 26, 189, 238, 157, 243, 60, 86, 169, 143, 60, 113, 33, 12, 61, 135, 238, 133, 188, 7, 86, 172, 188, 178, 98, 227, 60, 138, 194, 181, 60, 120, 15, 138, 60, 100, 184, 61, 188, 165, 81, 34, 61, 225, 152, 38, 189, 94, 58, 148, 188, 56, 184, 33, 60, 16, 58, 101, 60, 218, 107, 32, 189, 170, 178, 243, 60, 8, 185, 24, 60, 65, 204, 160, 188, 249, 51, 142, 188, 61, 253, 211, 188, 136, 82, 175, 59, 138, 82, 186, 60, 228, 223, 247, 188, 88, 24, 139, 60, 134, 254, 179, 60, 136, 191, 12, 60, 16, 91, 250, 59, 175, 101, 15, 189, 234, 93, 146, 188, 232, 154, 242, 188, 50, 83, 141, 60, 192, 52, 22, 188, 160, 60, 242, 187, 79, 126, 33, 189, 177, 151, 33, 189, 192, 107, 97, 187, 16, 166, 126, 59, 48, 139, 154, 59, 148, 113, 160, 188, 24, 96, 13, 189, 176, 166, 41, 60, 163, 241, 8, 61, 160, 252, 238, 59, 250, 74, 32, 189, 57, 203, 28, 61, 66, 116, 167, 60, 78, 115, 113, 188, 142, 123, 241, 188, 83, 255, 4, 61, 0, 229, 198, 187, 102, 128, 182, 60, 196, 82, 41, 189, 232, 146, 192, 187, 166, 190, 252, 60, 162, 115, 234, 60, 0, 194, 65, 186, 8, 111, 213, 59, 132, 91, 63, 188, 0, 36, 217, 187, 22, 163, 194, 188, 158, 108, 251, 60, 127, 254, 29, 61, 224, 61, 36, 189, 110, 244, 153, 60, 26, 34, 148, 60, 14, 30, 227, 60, 188, 72, 16, 188, 53, 219, 187, 188, 60, 82, 75, 60, 131, 110, 41, 189, 86, 84, 154, 60, 254, 9, 12, 189, 218, 34, 169, 60, 209, 45, 13, 61, 176, 86, 114, 187, 139, 78, 0, 189, 43, 203, 230, 188, 246, 44, 205, 60, 31, 23, 20, 61, 194, 165, 232, 60, 50, 134, 215, 60, 12, 235, 101, 60, 179, 80, 2, 61, 140, 16, 25, 60, 64, 81, 39, 186, 223, 252, 36, 61, 96, 118, 77, 187, 160, 242, 40, 60, 44, 173, 132, 60, 106, 242, 193, 60, 194, 173, 141, 188, 24, 0, 135, 187, 176, 111, 248, 187, 216, 67, 206, 187, 240, 252, 189, 188, 0, 64, 74, 184, 149, 75, 0, 189, 36, 52, 67, 188, 142, 11, 196, 60, 73, 95, 25, 61, 74, 189, 3, 189, 110, 223, 174, 60, 128, 170, 57, 60, 48, 232, 237, 59, 20, 250, 58, 188, 3, 198, 13, 61, 134, 134, 237, 60, 58, 202, 252, 60, 228, 160, 16, 189, 22, 149, 206, 60, 165, 191, 22, 61, 118, 87, 70, 188, 40, 0, 95, 60, 179, 106, 192, 188, 128, 235, 78, 59, 16, 100, 94, 187, 108, 168, 95, 188, 200, 175, 111, 60, 10, 6, 219, 60, 144, 40, 48, 187, 82, 32, 129, 60, 170, 164, 20, 189, 160, 18, 30, 188, 198, 198, 245, 60, 201, 88, 172, 188, 105, 77, 31, 61, 48, 253, 167, 187, 211, 221, 27, 61, 134, 13, 170, 60, 233, 179, 200, 188, 221, 1, 155, 188, 0, 47, 120, 188, 10, 197, 17, 189, 147, 124, 18, 189, 12, 82, 128, 60, 244, 58, 254, 188, 89, 167, 37, 189, 176, 66, 30, 188, 254, 215, 168, 60, 0, 70, 217, 58, 132, 56, 13, 189, 198, 238, 40, 189, 216, 228, 28, 189, 82, 34, 140, 188, 176, 59, 115, 187, 104, 171, 196, 59, 0, 70, 31, 60, 166, 113, 72, 188, 40, 156, 143, 59, 157, 160, 8, 189, 143, 146, 150, 188, 72, 73, 247, 188, 72, 126, 200, 188, 62, 210, 228, 188, 172, 5, 235, 188, 172, 253, 166, 188, 166, 204, 157, 188, 40, 84, 128, 187, 95, 188, 30, 61, 30, 247, 116, 188, 16, 29, 110, 60, 146, 197, 219, 60, 188, 160, 45, 189, 224, 251, 212, 187, 244, 62, 157, 188, 29, 11, 27, 61, 72, 101, 28, 188, 163, 73, 17, 61, 194, 159, 218, 60, 152, 88, 104, 60, 64, 191, 43, 186, 192, 157, 226, 59, 112, 132, 130, 187, 144, 178, 239, 59, 147, 158, 6, 61, 193, 121, 0, 189, 27, 227, 212, 188, 102, 231, 255, 188, 242, 121, 26, 189, 128, 1, 18, 187, 88, 19, 67, 60, 209, 130, 18, 61, 136, 76, 192, 59, 114, 57, 253, 60, 48, 250, 233, 59, 133, 14, 219, 188, 218, 128, 253, 60, 64, 127, 46, 187, 25, 141, 131, 188, 232, 130, 117, 60, 42, 84, 251, 60, 240, 236, 215, 59, 88, 80, 237, 59, 61, 249, 11, 61, 14, 166, 14, 189, 81, 127, 43, 61, 204, 60, 183, 188, 68, 99, 90, 60, 68, 152, 42, 188, 36, 56, 130, 188, 142, 181, 239, 60, 6, 44, 144, 60, 150, 1, 149, 60, 28, 194, 151, 60, 186, 6, 202, 60, 58, 160, 8, 189, 171, 98, 0, 61, 172, 54, 50, 60, 223, 54, 35, 189, 240, 253, 98, 59, 122, 9, 213, 188, 224, 146, 64, 59, 21, 218, 18, 61, 117, 227, 189, 188, 249, 39, 20, 189, 116, 161, 27, 60, 66, 135, 90, 188, 101, 165, 158, 188, 76, 53, 71, 60, 169, 52, 44, 189, 135, 18, 212, 188, 143, 92, 165, 188, 97, 86, 30, 189, 136, 167, 150, 60, 212, 121, 13, 189, 16, 19, 195, 59, 64, 227, 21, 189, 87, 119, 29, 189, 3, 194, 150, 188, 192, 209, 112, 188, 40, 168, 28, 60, 133, 8, 8, 189, 252, 24, 228, 188, 149, 38, 17, 61, 172, 74, 54, 60, 55, 5, 19, 61, 8, 85, 149, 59, 184, 123, 9, 60, 238, 4, 158, 188, 74, 92, 168, 60, 56, 29, 59, 188, 192, 33, 188, 59, 192, 180, 41, 60, 113, 199, 21, 189, 68, 130, 93, 188, 103, 76, 10, 61, 154, 253, 209, 60, 231, 14, 44, 61, 200, 53, 5, 188, 64, 223, 0, 188, 188, 246, 5, 189, 205, 113, 131, 188, 242, 210, 198, 60, 181, 200, 180, 188, 246, 255, 170, 60, 78, 64, 144, 60, 100, 83, 187, 188, 50, 15, 202, 60, 166, 131, 131, 188, 154, 217, 10, 189, 232, 73, 42, 189, 20, 184, 18, 188, 106, 145, 171, 60, 66, 104, 190, 60, 50, 153, 171, 60, 56, 181, 148, 59, 78, 73, 132, 188, 0, 111, 94, 187, 204, 39, 5, 60, 81, 225, 139, 188, 204, 11, 94, 60, 110, 27, 177, 188, 179, 86, 17, 189, 66, 195, 246, 60, 241, 182, 166, 188, 11, 152, 33, 189, 232, 39, 32, 60, 206, 208, 128, 188, 150, 55, 140, 60, 200, 12, 236, 188, 32, 11, 83, 59, 94, 152, 46, 189, 132, 217, 30, 189, 182, 15, 252, 60, 48, 147, 166, 187, 156, 170, 6, 60, 82, 111, 250, 188, 203, 238, 138, 188, 36, 212, 158, 188, 133, 115, 227, 188, 187, 17, 12, 61, 144, 53, 62, 187, 246, 140, 148, 188, 144, 175, 111, 60, 21, 251, 17, 61, 193, 233, 40, 61, 144, 202, 59, 59, 12, 47, 112, 60, 18, 114, 121, 188, 102, 217, 230, 60, 192, 38, 175, 187, 207, 120, 210, 188, 248, 253, 166, 59, 176, 31, 45, 188, 201, 238, 41, 61, 0, 78, 158, 58, 118, 85, 216, 60, 237, 123, 37, 61, 210, 104, 184, 60, 0, 87, 75, 186, 168, 139, 199, 187, 23, 193, 219, 188, 13, 117, 5, 189, 138, 164, 174, 60, 48, 25, 9, 188, 54, 173, 243, 60, 77, 234, 203, 188, 60, 190, 14, 188, 204, 37, 235, 188, 46, 148, 174, 60, 10, 101, 108, 188, 245, 16, 1, 61, 240, 217, 28, 59, 68, 148, 121, 188, 56, 182, 160, 187, 167, 170, 188, 188, 0, 252, 142, 59, 7, 123, 178, 188, 172, 67, 226, 188, 33, 94, 42, 189, 92, 215, 207, 188, 0, 230, 152, 187, 209, 109, 38, 189, 253, 46, 185, 188, 144, 202, 52, 60, 244, 84, 105, 188, 68, 205, 52, 188, 224, 187, 1, 189, 219, 115, 19, 189, 239, 120, 164, 188, 56, 213, 203, 187, 96, 204, 203, 188, 30, 71, 151, 60, 218, 45, 242, 60, 126, 172, 245, 60, 87, 103, 7, 189, 13, 172, 161, 188, 254, 123, 212, 60, 64, 170, 234, 186, 239, 250, 17, 61, 160, 215, 35, 189, 170, 12, 138, 188, 128, 119, 9, 58, 239, 40, 133, 188, 227, 14, 2, 189, 212, 184, 31, 188, 0, 54, 221, 187, 208, 176, 116, 59, 28, 116, 94, 188, 148, 114, 56, 188, 249, 52, 197, 188, 102, 214, 153, 60, 118, 214, 157, 60, 116, 53, 48, 188, 240, 65, 39, 188, 55, 162, 4, 189, 119, 183, 2, 61, 104, 102, 84, 60, 112, 72, 215, 187, 128, 16, 187, 59, 200, 176, 0, 189, 175, 103, 34, 61, 240, 78, 58, 187, 62, 81, 234, 60, 180, 108, 87, 188, 176, 58, 138, 60, 170, 167, 244, 60, 16, 205, 154, 60, 26, 26, 37, 189, 199, 24, 7, 61, 118, 88, 18, 189, 62, 83, 221, 188, 140, 192, 131, 188, 238, 91, 214, 60, 160, 171, 197, 188, 142, 172, 144, 60, 184, 160, 229, 187, 142, 87, 189, 60, 80, 108, 6, 60, 56, 45, 86, 60, 134, 119, 241, 60, 16, 25, 58, 59, 81, 30, 223, 188, 108, 99, 107, 188, 205, 221, 138, 188, 8, 251, 2, 189, 115, 91, 195, 188, 80, 209, 114, 59, 91, 181, 229, 188, 80, 93, 238, 59, 134, 120, 233, 188, 179, 234, 39, 61, 224, 12, 16, 60, 110, 184, 197, 60, 144, 247, 166, 187, 40, 81, 113, 60, 4, 47, 10, 60, 202, 6, 238, 60, 110, 126, 116, 188, 23, 118, 8, 61, 128, 160, 101, 60, 72, 153, 187, 59, 0, 247, 250, 186, 231, 52, 240, 188, 194, 134, 3, 189, 248, 202, 219, 187, 94, 35, 218, 60, 192, 39, 164, 188, 252, 180, 141, 188, 248, 213, 213, 59, 179, 107, 31, 189, 233, 92, 20, 61, 24, 25, 46, 188, 142, 130, 194, 60, 251, 21, 43, 61, 96, 91, 25, 59, 65, 75, 26, 61, 1, 106, 175, 188, 138, 234, 194, 60, 240, 84, 103, 187, 224, 148, 24, 59, 214, 174, 111, 188, 36, 210, 7, 189, 212, 22, 131, 188, 144, 198, 240, 59, 96, 67, 158, 186, 188, 178, 26, 60, 112, 219, 95, 187, 144, 225, 191, 59, 62, 112, 155, 188, 21, 211, 35, 61, 118, 108, 155, 188, 32, 29, 46, 59, 163, 109, 43, 189, 112, 0, 137, 59, 192, 25, 47, 186, 0, 74, 182, 186, 208, 60, 85, 187, 36, 99, 46, 189, 215, 58, 26, 61, 130, 22, 246, 60, 60, 166, 236, 188, 73, 61, 32, 189, 224, 186, 173, 59, 209, 14, 44, 61, 27, 50, 16, 189, 96, 152, 104, 60, 0, 240, 223, 57, 10, 94, 237, 188, 88, 54, 85, 60, 132, 10, 15, 189, 82, 95, 4, 189, 50, 107, 186, 60, 94, 162, 3, 189, 219, 121, 222, 188, 237, 135, 21, 189, 81, 69, 10, 61, 4, 162, 10, 188, 176, 59, 31, 59, 246, 49, 134, 60, 56, 161, 245, 187, 144, 212, 12, 188, 0, 103, 26, 59, 16, 212, 144, 59, 71, 179, 189, 188, 145, 235, 27, 61, 67, 79, 42, 61, 224, 225, 180, 187, 24, 49, 224, 188, 252, 29, 158, 60, 96, 1, 241, 58, 178, 48, 143, 60, 0, 198, 232, 186, 220, 49, 7, 189, 103, 13, 8, 61, 232, 235, 241, 188, 148, 11, 144, 60, 86, 210, 29, 189, 64, 39, 136, 58, 126, 182, 158, 188, 236, 22, 57, 188, 158, 110, 155, 60, 192, 89, 219, 187, 0, 8, 243, 57, 240, 8, 76, 187, 51, 2, 236, 188, 10, 158, 168, 188, 80, 61, 45, 188, 12, 56, 61, 188, 76, 1, 72, 188, 204, 220, 146, 188, 91, 129, 32, 61, 248, 100, 154, 59, 15, 205, 193, 188, 254, 87, 242, 60, 176, 145, 64, 187, 96, 250, 63, 59, 104, 217, 60, 60, 128, 116, 151, 58, 60, 238, 22, 188, 195, 177, 27, 61, 163, 179, 5, 189, 102, 129, 192, 60, 238, 0, 225, 60, 80, 48, 1, 188, 208, 128, 73, 188, 137, 177, 196, 188, 132, 69, 29, 188, 10, 26, 31, 189, 0, 255, 182, 187, 237, 85, 11, 61, 48, 183, 109, 60, 169, 126, 37, 189, 11, 198, 33, 189, 226, 73, 184, 60, 224, 55, 135, 58, 87, 171, 224, 188, 119, 101, 216, 188, 144, 129, 36, 59, 0, 112, 54, 185, 76, 70, 19, 60, 144, 26, 52, 188, 66, 80, 226, 60, 203, 157, 145, 188, 76, 85, 138, 60, 88, 195, 222, 188, 230, 32, 223, 60, 200, 170, 221, 187, 140, 18, 180, 188, 226, 94, 234, 188, 16, 2, 80, 59, 66, 177, 140, 60, 116, 5, 83, 188, 103, 204, 37, 61, 47, 16, 159, 188, 186, 137, 191, 60, 148, 43, 52, 188, 0, 243, 89, 58, 32, 88, 68, 188, 105, 88, 19, 61, 240, 190, 107, 59, 150, 222, 111, 188, 170, 111, 19, 189, 120, 3, 245, 59, 69, 194, 33, 61, 56, 123, 30, 189, 252, 35, 95, 188, 126, 214, 148, 188, 98, 155, 221, 60, 208, 96, 82, 59, 28, 183, 76, 60, 76, 251, 16, 189, 128, 26, 130, 187, 208, 183, 186, 187, 25, 49, 8, 189, 98, 70, 168, 60, 120, 181, 39, 189, 131, 195, 200, 188, 229, 38, 180, 188, 202, 77, 215, 60, 106, 248, 237, 60, 197, 57, 19, 61, 120, 0, 165, 59, 228, 3, 16, 189, 89, 33, 32, 61, 192, 234, 18, 58, 246, 175, 145, 188, 111, 87, 19, 61, 164, 28, 102, 188, 62, 160, 204, 60, 200, 28, 165, 187, 148, 225, 10, 60, 122, 120, 217, 188, 160, 54, 147, 187, 188, 194, 17, 60, 122, 154, 196, 60, 248, 63, 152, 60, 57, 131, 143, 188, 80, 39, 39, 60, 184, 124, 156, 187, 200, 244, 168, 188, 88, 137, 15, 60, 161, 144, 165, 188, 66, 97, 201, 60, 160, 228, 250, 59, 112, 10, 19, 187, 201, 7, 19, 61, 64, 45, 155, 60, 37, 161, 238, 188, 12, 213, 88, 60, 158, 249, 131, 60, 72, 27, 208, 59, 18, 217, 213, 60, 128, 109, 173, 186, 2, 64, 219, 60, 104, 166, 23, 189, 24, 4, 152, 60, 16, 84, 46, 189, 244, 60, 16, 189, 64, 216, 143, 60, 237, 188, 0, 61, 8, 88, 235, 188, 60, 79, 248, 188, 0, 51, 240, 185, 192, 187, 43, 186, 90, 93, 187, 60, 240, 115, 146, 59, 24, 43, 33, 189, 144, 82, 30, 189, 37, 100, 19, 189, 246, 71, 166, 60, 230, 141, 17, 189, 134, 42, 213, 188, 110, 162, 234, 188, 58, 38, 189, 60, 136, 53, 144, 187, 40, 2, 56, 60, 226, 222, 216, 60, 175, 183, 43, 61, 186, 155, 179, 60, 62, 135, 246, 60, 64, 86, 60, 186, 16, 4, 54, 187, 110, 99, 21, 189, 100, 232, 238, 188, 16, 246, 114, 59, 86, 220, 212, 60, 204, 109, 25, 189, 114, 140, 221, 60, 32, 117, 96, 59, 224, 51, 30, 187, 127, 84, 26, 61, 96, 80, 187, 188, 114, 237, 207, 60, 24, 187, 224, 187, 126, 164, 127, 188, 48, 228, 74, 187, 154, 207, 81, 188, 144, 247, 149, 59, 242, 176, 20, 189, 220, 153, 145, 188, 128, 210, 144, 57, 203, 134, 133, 188, 133, 212, 1, 61, 140, 208, 121, 60, 104, 148, 230, 188, 222, 194, 199, 60, 64, 229, 75, 60, 53, 173, 183, 188, 62, 165, 22, 189, 0, 99, 161, 187, 233, 27, 180, 188, 124, 7, 139, 60, 124, 126, 241, 188, 94, 167, 234, 60, 32, 172, 16, 60, 1, 47, 15, 61, 248, 84, 28, 189, 204, 89, 6, 189, 109, 148, 4, 61, 4, 217, 100, 60, 174, 211, 19, 189, 136, 164, 197, 188, 186, 147, 242, 60, 224, 222, 238, 188, 76, 161, 122, 188, 128, 85, 170, 185, 52, 16, 61, 60, 50, 66, 116, 188, 92, 134, 198, 188, 76, 5, 200, 188, 225, 56, 250, 188, 164, 129, 20, 189, 34, 235, 213, 60, 114, 190, 180, 188, 99, 227, 220, 188, 128, 15, 103, 187, 126, 99, 249, 60, 120, 52, 20, 189, 220, 158, 82, 60, 32, 139, 181, 58, 174, 225, 201, 60, 190, 112, 215, 60, 138, 142, 209, 60, 239, 44, 16, 61, 249, 198, 39, 189, 216, 217, 142, 60, 142, 213, 182, 60, 115, 105, 28, 61, 121, 235, 46, 61, 144, 237, 126, 188, 211, 173, 157, 188, 226, 43, 232, 60, 118, 246, 181, 188, 217, 215, 3, 61, 216, 253, 169, 187, 48, 10, 201, 187, 16, 165, 253, 187, 32, 28, 128, 59, 128, 231, 9, 186, 224, 14, 240, 58, 120, 109, 205, 188, 253, 88, 10, 61, 102, 213, 217, 60, 136, 81, 213, 188, 158, 144, 166, 60, 227, 221, 39, 61, 240, 178, 211, 187, 194, 43, 249, 60, 66, 213, 64, 188, 80, 69, 42, 187, 125, 36, 4, 189, 160, 197, 26, 188, 140, 80, 122, 60, 224, 193, 13, 189, 192, 247, 36, 188, 100, 10, 159, 188, 72, 219, 213, 187, 72, 48, 15, 188, 67, 88, 32, 189, 89, 177, 7, 61, 168, 15, 142, 60, 0, 92, 44, 186, 212, 100, 133, 188, 215, 75, 35, 61, 80, 59, 165, 187, 0, 134, 169, 184, 80, 167, 95, 60, 226, 124, 7, 189, 208, 152, 13, 189, 232, 164, 35, 60, 158, 144, 172, 60, 218, 163, 205, 60, 32, 5, 38, 60, 166, 27, 235, 188, 0, 47, 155, 57, 88, 138, 234, 187, 224, 251, 238, 186, 239, 171, 20, 61, 195, 166, 33, 189, 58, 238, 188, 60, 93, 9, 32, 189, 158, 201, 205, 60, 136, 14, 13, 188, 128, 31, 128, 58, 236, 90, 87, 60, 62, 171, 187, 60, 58, 54, 196, 60, 72, 169, 154, 59, 160, 250, 29, 189, 28, 216, 125, 60, 141, 118, 38, 61, 186, 182, 22, 189, 194, 7, 131, 188, 96, 10, 207, 187, 216, 36, 234, 59, 0, 68, 100, 57, 30, 76, 248, 188, 8, 232, 40, 189, 8, 242, 28, 189, 104, 104, 151, 187, 113, 178, 36, 189, 152, 126, 61, 60, 0, 42, 13, 186, 84, 211, 20, 188, 136, 253, 30, 189, 148, 171, 112, 188, 246, 148, 220, 188, 117, 78, 6, 189, 182, 107, 191, 60, 176, 32, 31, 60, 15, 98, 24, 61, 50, 223, 254, 60, 60, 147, 1, 60, 216, 128, 225, 59, 242, 87, 69, 188, 80, 5, 17, 59, 224, 177, 31, 189, 245, 81, 191, 188, 202, 181, 200, 188, 218, 209, 236, 60, 192, 13, 239, 58, 64, 6, 25, 187, 4, 135, 73, 60, 29, 254, 32, 61, 210, 108, 0, 189, 252, 81, 20, 189, 0, 100, 46, 57, 46, 133, 162, 188, 139, 177, 16, 189, 67, 196, 40, 61, 154, 69, 199, 188, 168, 55, 219, 59, 90, 78, 150, 188, 44, 194, 85, 60, 97, 158, 15, 189, 238, 124, 252, 60, 6, 203, 5, 189, 72, 104, 28, 60, 64, 3, 174, 58, 250, 104, 245, 60, 20, 184, 90, 188, 171, 123, 12, 189, 16, 2, 110, 187, 118, 236, 164, 60, 35, 216, 34, 189, 144, 108, 204, 187, 192, 199, 63, 187, 218, 176, 182, 188, 135, 173, 153, 188, 86, 248, 82, 188, 55, 237, 42, 61, 100, 7, 127, 60, 27, 66, 23, 189, 64, 118, 121, 187, 82, 115, 31, 189, 22, 106, 6, 189, 72, 3, 224, 187, 128, 32, 167, 57, 232, 223, 171, 187, 70, 92, 224, 60, 84, 236, 89, 60, 96, 210, 152, 186, 101, 201, 8, 61, 253, 215, 31, 189, 236, 25, 178, 188, 136, 105, 7, 189, 249, 192, 6, 61, 142, 35, 91, 188, 36, 11, 195, 188, 218, 234, 28, 189, 104, 159, 29, 189, 116, 8, 23, 189, 160, 133, 174, 58, 205, 246, 28, 189, 50, 46, 129, 60, 142, 173, 177, 60, 0, 208, 240, 57, 219, 167, 204, 188, 52, 22, 196, 188, 0, 100, 48, 188, 72, 238, 194, 59, 220, 230, 125, 188, 160, 240, 242, 58, 73, 47, 189, 188, 114, 3, 137, 60, 174, 130, 243, 60, 80, 97, 191, 59, 200, 95, 5, 189, 135, 69, 37, 61, 173, 173, 171, 188, 254, 223, 167, 60, 128, 235, 104, 58, 48, 154, 142, 187, 1, 55, 181, 188, 232, 39, 203, 187, 0, 242, 9, 58, 232, 138, 171, 187, 72, 119, 65, 60, 5, 212, 35, 61, 8, 131, 129, 60, 6, 155, 136, 60, 174, 10, 66, 188, 86, 88, 19, 189, 235, 66, 1, 61, 186, 141, 128, 60, 112, 103, 3, 188, 128, 19, 96, 59, 45, 65, 149, 188, 93, 191, 12, 61, 119, 96, 254, 188, 109, 242, 249, 188, 160, 119, 147, 58, 10, 45, 31, 189, 44, 61, 33, 60, 99, 194, 42, 61, 160, 223, 1, 60, 128, 203, 145, 187, 192, 53, 92, 60, 11, 7, 33, 61, 224, 226, 139, 188, 195, 30, 22, 189, 41, 48, 28, 189, 217, 0, 156, 188, 120, 34, 33, 189, 26, 143, 180, 60, 176, 66, 74, 188, 123, 7, 20, 61, 61, 178, 17, 61, 0, 103, 154, 58, 176, 83, 211, 59, 11, 246, 198, 188, 1, 243, 44, 61, 58, 153, 208, 60, 214, 135, 129, 60, 48, 24, 6, 189, 76, 156, 113, 60, 202, 36, 191, 60, 3, 192, 248, 188, 254, 47, 91, 188, 140, 194, 54, 60, 52, 3, 49, 188, 104, 52, 218, 59, 70, 169, 197, 60, 84, 9, 7, 189, 149, 217, 42, 189, 245, 78, 230, 188, 152, 197, 225, 59, 180, 135, 28, 60, 214, 242, 176, 188, 148, 147, 94, 60, 123, 54, 210, 188, 38, 129, 8, 189, 22, 172, 176, 188, 189, 86, 3, 61, 242, 2, 172, 60, 35, 98, 45, 189, 96, 15, 128, 186, 14, 118, 224, 60, 228, 247, 155, 60, 54, 245, 206, 188, 224, 137, 141, 186, 24, 109, 33, 188, 132, 150, 136, 60, 171, 114, 35, 189, 216, 4, 205, 187, 185, 91, 43, 61, 223, 193, 28, 61, 84, 53, 59, 188, 208, 227, 206, 187, 192, 166, 16, 187, 187, 19, 14, 61, 50, 72, 134, 188, 255, 200, 26, 61, 114, 49, 83, 188, 146, 84, 233, 60, 238, 163, 63, 188, 0, 44, 222, 59, 82, 194, 205, 60, 110, 125, 18, 189, 176, 89, 121, 59, 154, 195, 135, 60, 232, 50, 63, 60, 204, 214, 35, 188, 61, 81, 15, 189, 53, 224, 38, 61, 196, 149, 13, 189, 156, 18, 166, 188, 192, 96, 211, 186, 79, 105, 31, 61, 232, 248, 38, 189, 234, 153, 142, 60, 178, 235, 231, 60, 119, 190, 5, 61, 245, 150, 27, 61, 0, 130, 178, 184, 198, 162, 239, 60, 1, 208, 10, 61, 184, 113, 145, 188, 112, 131, 23, 60, 233, 86, 1, 61, 5, 160, 213, 188, 180, 29, 150, 188, 57, 192, 206, 188, 170, 84, 100, 188, 15, 43, 7, 61, 206, 221, 210, 188, 240, 250, 56, 187, 231, 127, 39, 189, 95, 172, 45, 189, 176, 146, 212, 187, 30, 28, 253, 188, 21, 241, 18, 189, 18, 224, 251, 60, 208, 245, 40, 59, 170, 31, 253, 188, 126, 10, 254, 60, 126, 88, 126, 188, 10, 235, 246, 60, 49, 20, 16, 61, 148, 124, 126, 60, 20, 182, 109, 60, 224, 67, 167, 186, 179, 1, 134, 188, 40, 237, 226, 188, 234, 174, 188, 60, 32, 240, 183, 59, 193, 144, 36, 189, 28, 130, 48, 188, 84, 81, 92, 60, 44, 116, 246, 188, 149, 213, 34, 61, 108, 211, 18, 189, 64, 1, 6, 189, 46, 59, 243, 60, 236, 226, 14, 189, 53, 24, 138, 188, 246, 138, 151, 60, 105, 51, 15, 61, 65, 50, 153, 188, 255, 117, 23, 61, 104, 205, 1, 189, 128, 209, 177, 188, 254, 193, 164, 60, 66, 227, 176, 60, 64, 163, 9, 187, 136, 217, 151, 187, 170, 47, 193, 60, 97, 88, 172, 188, 60, 203, 19, 189, 70, 63, 159, 60, 116, 52, 26, 188, 138, 82, 175, 60, 206, 59, 174, 60, 232, 23, 21, 188, 13, 77, 38, 189, 203, 69, 37, 189, 144, 121, 17, 59, 192, 175, 196, 58, 184, 106, 68, 60, 237, 74, 42, 61, 12, 67, 140, 60, 205, 60, 9, 61, 69, 245, 17, 189, 240, 76, 132, 60, 72, 88, 4, 189, 230, 192, 201, 60, 236, 52, 45, 60, 108, 89, 46, 60, 195, 44, 42, 189, 115, 119, 167, 188, 136, 166, 189, 187, 95, 86, 43, 189, 70, 158, 132, 60, 110, 245, 175, 60, 56, 134, 139, 60, 96, 35, 3, 189, 117, 230, 144, 188, 116, 233, 98, 60, 216, 163, 144, 59, 254, 203, 128, 188, 128, 9, 180, 57, 153, 75, 23, 61, 218, 255, 28, 189, 32, 60, 223, 59, 151, 48, 185, 188, 224, 115, 157, 58, 92, 26, 55, 60, 44, 82, 89, 188, 90, 220, 196, 188, 88, 186, 26, 188, 232, 50, 248, 59, 184, 139, 253, 188, 200, 243, 143, 187, 32, 166, 10, 59, 218, 170, 171, 60, 224, 176, 45, 187, 226, 254, 249, 60, 34, 70, 173, 60, 35, 48, 10, 61, 140, 136, 143, 60, 236, 106, 82, 60, 100, 64, 0, 188, 120, 210, 121, 188, 55, 16, 18, 189, 24, 147, 107, 188, 240, 91, 192, 187, 85, 24, 8, 61, 173, 228, 177, 188, 138, 188, 233, 188, 163, 98, 152, 188, 84, 142, 162, 188, 140, 155, 92, 188, 68, 241, 115, 60, 6, 200, 236, 60, 146, 214, 237, 60, 92, 158, 1, 189, 30, 239, 182, 60, 204, 80, 94, 188, 149, 3, 47, 61, 128, 137, 124, 58, 102, 113, 16, 189, 59, 97, 30, 61, 81, 26, 40, 61, 57, 125, 225, 188, 183, 8, 202, 188, 250, 118, 189, 60, 194, 35, 68, 188, 216, 125, 153, 59, 148, 38, 27, 60, 102, 32, 232, 60, 43, 225, 36, 189, 184, 207, 198, 187, 171, 130, 6, 189, 200, 42, 50, 60, 115, 177, 168, 188, 34, 58, 186, 188, 48, 70, 186, 187, 0, 86, 184, 58, 216, 7, 71, 60, 76, 179, 46, 189, 26, 135, 0, 189, 212, 36, 75, 60, 212, 236, 62, 60, 48, 233, 158, 187, 56, 236, 19, 60, 24, 116, 226, 59, 112, 66, 58, 187, 148, 32, 23, 189, 204, 127, 234, 188, 151, 129, 24, 189, 50, 218, 248, 188, 92, 26, 75, 60, 16, 28, 108, 60, 50, 74, 251, 60, 152, 51, 198, 187, 26, 193, 199, 60, 64, 19, 141, 186, 170, 144, 236, 60, 202, 28, 163, 60, 110, 155, 12, 189, 0, 152, 25, 189, 153, 214, 30, 61, 140, 190, 121, 60, 2, 254, 191, 60, 37, 52, 9, 189, 170, 131, 162, 60, 240, 119, 4, 189, 78, 231, 95, 188, 66, 152, 183, 188, 60, 189, 7, 188, 33, 251, 146, 188, 232, 130, 145, 187, 14, 43, 217, 188, 72, 35, 211, 187, 191, 56, 194, 188, 26, 148, 27, 189, 32, 53, 30, 188, 88, 209, 189, 59, 64, 212, 135, 59, 71, 254, 9, 61, 210, 82, 25, 189, 46, 20, 232, 60, 111, 98, 2, 189, 64, 181, 68, 58, 24, 59, 68, 188, 108, 170, 20, 60, 134, 180, 251, 188, 6, 219, 239, 60, 245, 29, 18, 189, 198, 17, 222, 60, 254, 193, 214, 60, 83, 88, 135, 188, 112, 74, 141, 59, 80, 193, 130, 59, 252, 63, 42, 60, 190, 215, 137, 60, 220, 51, 151, 60, 46, 155, 62, 188, 105, 0, 207, 188, 158, 200, 253, 60, 237, 73, 41, 61, 176, 11, 30, 187, 80, 163, 202, 59, 52, 244, 156, 188, 83, 41, 187, 188, 232, 161, 252, 59, 166, 243, 235, 60, 177, 177, 19, 61, 0, 204, 250, 59, 66, 26, 237, 188, 144, 90, 224, 59, 38, 207, 194, 60, 240, 255, 150, 59, 106, 124, 14, 189, 132, 159, 28, 60, 90, 199, 203, 188, 64, 56, 81, 187, 160, 89, 150, 187, 100, 66, 1, 188, 8, 8, 209, 187, 177, 100, 16, 61, 0, 241, 112, 186, 179, 157, 27, 61, 24, 244, 95, 188, 64, 19, 135, 186, 146, 105, 194, 60, 128, 135, 34, 189, 0, 237, 24, 189, 248, 46, 183, 187, 130, 182, 121, 188, 18, 114, 68, 188, 16, 211, 44, 189, 153, 220, 183, 188, 54, 227, 170, 188, 193, 223, 14, 61, 128, 226, 254, 58, 102, 253, 242, 60, 36, 202, 112, 188, 46, 164, 124, 188, 200, 27, 82, 60, 2, 231, 163, 60, 136, 171, 11, 60, 139, 117, 40, 61, 32, 233, 31, 59, 181, 81, 26, 61, 130, 246, 229, 60, 240, 200, 18, 187, 112, 249, 115, 60, 16, 79, 181, 187, 112, 148, 3, 187, 80, 252, 153, 59, 122, 81, 224, 60, 158, 246, 25, 189, 112, 118, 224, 188, 99, 197, 14, 61, 64, 186, 248, 187, 159, 85, 10, 61, 200, 167, 47, 60, 190, 90, 175, 60, 217, 248, 3, 61, 32, 162, 252, 58, 23, 236, 141, 188, 112, 237, 3, 189, 27, 91, 33, 61, 231, 138, 209, 188, 245, 19, 188, 188, 134, 101, 207, 60, 240, 28, 61, 187, 76, 210, 57, 188, 54, 233, 253, 60, 154, 225, 188, 60, 144, 115, 132, 59, 150, 110, 142, 188, 202, 53, 251, 188, 72, 198, 16, 60, 251, 156, 10, 61, 44, 10, 70, 60, 74, 51, 223, 188, 225, 76, 4, 61, 60, 25, 0, 60, 82, 129, 232, 60, 177, 179, 3, 61, 16, 37, 103, 59, 104, 156, 167, 187, 114, 205, 0, 189, 24, 182, 108, 188, 65, 101, 20, 189, 90, 99, 232, 60, 67, 32, 211, 188, 16, 30, 39, 187, 254, 28, 172, 60, 151, 249, 35, 189, 62, 126, 159, 60, 82, 154, 44, 189, 126, 18, 155, 188, 90, 97, 13, 189, 234, 40, 159, 60, 130, 33, 39, 189, 166, 82, 8, 189, 126, 178, 144, 60, 97, 238, 15, 61, 185, 98, 13, 61, 48, 124, 134, 59, 61, 157, 173, 188, 20, 222, 18, 189, 130, 54, 38, 189, 224, 251, 19, 187, 80, 42, 9, 189, 166, 57, 179, 60, 0, 88, 55, 60, 222, 160, 135, 60, 61, 231, 20, 189, 126, 176, 244, 60, 6, 165, 69, 188, 102, 99, 159, 60, 2, 66, 175, 60, 30, 95, 195, 60, 3, 133, 184, 188, 1, 79, 40, 61, 59, 207, 0, 61, 43, 174, 1, 61, 240, 109, 32, 187, 60, 80, 160, 188, 144, 83, 86, 59, 194, 60, 117, 188, 34, 41, 189, 60, 132, 75, 23, 188, 82, 204, 226, 60, 189, 168, 187, 188, 200, 74, 236, 59, 38, 83, 11, 189, 16, 58, 23, 187, 202, 5, 163, 60, 73, 230, 18, 189, 58, 69, 162, 60, 169, 15, 35, 189, 71, 68, 46, 61, 140, 224, 27, 188, 45, 239, 239, 188, 7, 110, 10, 61, 15, 80, 245, 188, 65, 115, 129, 188, 0, 246, 31, 57, 216, 85, 130, 187, 144, 198, 99, 60, 219, 226, 13, 61, 97, 217, 12, 61, 51, 73, 13, 189, 214, 147, 153, 60, 248, 20, 168, 187, 64, 7, 248, 58, 147, 31, 1, 61, 242, 99, 249, 60, 128, 222, 190, 59, 18, 154, 199, 60, 0, 132, 48, 187, 218, 53, 83, 188, 34, 243, 196, 60, 109, 96, 44, 189, 224, 229, 162, 58, 70, 129, 167, 60, 212, 195, 107, 188, 186, 31, 159, 60, 32, 75, 253, 59, 159, 230, 11, 61, 73, 57, 18, 189, 108, 130, 54, 188, 198, 124, 233, 60, 212, 131, 2, 188, 244, 9, 148, 60, 124, 32, 45, 189, 252, 50, 37, 189, 222, 101, 62, 188, 120, 56, 238, 187, 90, 187, 210, 60, 183, 127, 22, 61, 52, 18, 128, 60, 0, 73, 51, 187, 84, 93, 13, 188, 112, 70, 137, 59, 192, 123, 57, 186, 134, 228, 135, 188, 132, 167, 96, 188, 175, 76, 3, 189, 23, 56, 26, 61, 128, 170, 10, 189, 2, 102, 219, 188, 184, 243, 17, 188, 78, 138, 247, 60, 184, 73, 192, 188, 24, 149, 39, 188, 21, 146, 179, 188, 155, 186, 0, 189, 94, 156, 213, 60, 145, 69, 29, 61, 54, 39, 81, 188, 93, 14, 22, 61, 190, 102, 253, 60, 72, 69, 175, 59, 16, 147, 105, 60, 22, 18, 236, 60, 164, 44, 144, 60, 96, 242, 142, 58, 114, 177, 208, 60, 184, 15, 127, 60, 0, 164, 253, 184, 48, 212, 27, 60, 170, 179, 227, 60, 1, 116, 21, 61, 150, 198, 192, 60, 80, 97, 89, 60, 51, 202, 46, 61, 32, 179, 137, 60, 200, 122, 137, 187, 136, 113, 99, 60, 144, 242, 129, 59, 177, 126, 18, 189, 32, 242, 145, 58, 14, 236, 191, 60, 150, 186, 243, 60, 24, 233, 238, 188, 87, 120, 22, 61, 2, 64, 217, 60, 162, 2, 151, 60, 10, 36, 214, 60, 227, 156, 41, 61, 244, 89, 93, 60, 16, 162, 56, 59, 144, 156, 7, 59, 240, 212, 238, 59, 56, 107, 186, 187, 252, 208, 4, 189, 126, 74, 184, 60, 109, 70, 178, 188, 104, 252, 200, 59, 190, 97, 190, 188, 0, 106, 17, 57, 161, 20, 47, 189, 86, 195, 173, 60, 248, 11, 26, 60, 188, 205, 112, 60, 232, 206, 222, 188, 11, 117, 5, 61, 203, 244, 13, 61, 232, 218, 15, 188, 204, 135, 68, 60, 64, 65, 38, 189, 64, 181, 196, 58, 155, 43, 12, 189, 114, 119, 175, 60, 254, 139, 195, 188, 32, 185, 137, 58, 112, 77, 86, 59, 238, 44, 118, 188, 101, 214, 131, 188, 62, 165, 26, 189, 162, 26, 161, 60, 160, 24, 240, 188, 160, 155, 209, 59, 247, 219, 43, 61, 126, 131, 188, 60, 204, 174, 162, 188, 196, 98, 85, 60, 234, 41, 234, 60, 244, 226, 94, 60, 176, 253, 48, 188, 111, 101, 17, 61, 120, 12, 71, 188, 195, 224, 11, 61, 48, 129, 28, 59, 0, 254, 93, 186, 144, 45, 236, 187, 176, 201, 34, 188, 70, 225, 242, 60, 183, 18, 44, 61, 178, 151, 178, 60, 59, 197, 40, 189, 213, 50, 12, 189, 130, 183, 120, 188, 43, 47, 43, 189, 148, 149, 58, 188, 240, 27, 139, 187, 32, 94, 138, 60, 17, 249, 163, 188, 100, 196, 196, 188, 214, 223, 196, 60, 140, 58, 242, 188, 107, 124, 11, 61, 50, 134, 203, 60, 133, 219, 224, 188, 112, 237, 21, 188, 122, 99, 102, 188, 64, 123, 206, 187, 24, 24, 132, 187, 137, 129, 27, 61, 248, 116, 69, 60, 80, 123, 82, 59, 252, 9, 15, 188, 204, 233, 114, 188, 106, 122, 202, 60, 192, 56, 37, 187, 211, 12, 7, 61, 112, 44, 162, 187, 211, 207, 190, 188, 101, 39, 46, 61, 56, 10, 30, 189, 61, 90, 35, 189, 72, 178, 177, 187, 64, 52, 23, 187, 72, 168, 209, 187, 208, 179, 43, 189, 34, 94, 230, 188, 168, 67, 158, 59, 0, 229, 183, 187, 68, 223, 151, 60, 80, 74, 23, 59, 168, 195, 231, 188, 102, 123, 221, 60, 197, 94, 28, 61, 176, 81, 149, 187, 180, 45, 153, 60, 236, 70, 131, 60, 243, 255, 0, 61, 124, 125, 142, 60, 176, 220, 177, 187, 244, 16, 95, 60, 164, 182, 5, 189, 62, 219, 242, 60, 36, 115, 16, 60, 176, 248, 61, 59, 18, 155, 196, 60, 243, 200, 14, 189, 244, 159, 35, 60, 80, 70, 30, 187, 10, 74, 98, 188, 30, 97, 193, 60, 0, 212, 197, 59, 80, 31, 80, 188, 31, 70, 20, 189, 2, 79, 181, 60, 79, 212, 41, 61, 200, 48, 140, 59, 71, 117, 30, 61, 224, 15, 37, 59, 174, 169, 209, 60, 105, 139, 28, 61, 234, 31, 145, 188, 179, 25, 199, 188, 53, 142, 246, 188, 226, 98, 186, 60, 214, 157, 5, 189, 248, 229, 120, 60, 143, 221, 42, 61, 238, 176, 201, 188, 238, 22, 160, 60, 208, 26, 70, 187, 1, 175, 195, 188, 232, 174, 80, 60, 196, 138, 98, 60, 30, 116, 101, 188, 129, 69, 182, 188, 108, 72, 18, 189, 178, 26, 189, 60, 79, 248, 39, 189, 211, 86, 0, 61, 185, 19, 43, 61, 127, 51, 14, 61, 0, 240, 210, 55, 236, 146, 50, 188, 246, 237, 253, 60, 220, 71, 102, 188, 0, 53, 247, 188, 240, 145, 154, 187, 94, 243, 255, 60, 204, 30, 44, 60, 0, 227, 5, 188, 100, 184, 64, 60, 6, 63, 167, 60, 124, 36, 204, 188, 69, 85, 9, 61, 128, 147, 182, 186, 22, 80, 170, 188, 196, 119, 141, 60, 235, 55, 38, 61, 176, 161, 189, 188, 72, 121, 114, 188, 48, 115, 160, 59, 147, 102, 30, 61, 106, 199, 247, 60, 12, 99, 66, 188, 19, 80, 29, 61, 156, 91, 42, 60, 46, 57, 145, 188, 29, 48, 228, 188, 164, 102, 143, 60, 32, 179, 194, 59, 138, 67, 62, 188, 77, 30, 8, 61, 233, 14, 128, 188, 254, 17, 188, 60, 86, 103, 205, 60, 112, 87, 44, 59, 122, 21, 64, 188, 49, 255, 38, 61, 198, 8, 205, 60, 132, 125, 90, 60, 211, 233, 22, 189, 131, 65, 8, 61, 84, 183, 105, 60, 52, 163, 45, 189, 93, 12, 9, 61, 195, 220, 3, 189, 81, 42, 20, 61, 61, 179, 205, 188, 147, 109, 26, 61, 192, 58, 146, 188, 200, 123, 211, 187, 60, 241, 74, 60, 174, 68, 149, 60, 72, 23, 165, 188, 233, 201, 42, 61, 239, 5, 37, 189, 126, 230, 252, 60, 36, 38, 243, 188, 54, 12, 211, 188, 122, 157, 221, 188, 192, 25, 51, 58, 247, 1, 240, 188, 232, 178, 245, 59, 34, 215, 12, 189, 196, 253, 129, 188, 136, 144, 22, 189, 193, 175, 201, 188, 218, 11, 20, 189, 200, 67, 112, 188, 24, 15, 38, 189, 36, 140, 217, 188, 8, 191, 215, 59, 188, 50, 130, 60, 64, 170, 69, 59, 218, 19, 244, 60, 82, 151, 201, 188, 80, 41, 208, 188, 78, 165, 152, 60, 134, 8, 244, 60, 189, 146, 9, 61, 104, 2, 138, 188, 218, 227, 158, 188, 176, 234, 89, 59, 170, 111, 179, 60, 245, 123, 185, 188, 154, 171, 155, 188, 230, 232, 214, 60, 68, 26, 28, 188, 234, 24, 211, 60, 168, 17, 102, 60, 247, 86, 0, 189, 240, 177, 167, 59, 166, 51, 171, 60, 101, 13, 2, 61, 23, 142, 255, 188, 218, 61, 176, 188, 43, 119, 10, 189, 56, 35, 233, 59, 106, 253, 251, 60, 41, 62, 34, 61, 32, 227, 149, 59, 156, 203, 0, 189, 184, 206, 159, 60, 0, 191, 60, 58, 6, 125, 232, 60, 80, 130, 79, 187, 174, 152, 185, 60, 48, 60, 82, 188, 206, 99, 189, 60, 192, 144, 86, 60, 4, 235, 108, 60, 80, 222, 99, 187, 29, 62, 6, 61, 61, 80, 224, 188, 72, 58, 165, 187, 132, 41, 217, 188, 26, 179, 100, 188, 188, 101, 132, 188, 80, 236, 241, 188, 0, 172, 156, 59, 0, 209, 47, 59, 128, 73, 131, 185, 78, 13, 247, 60, 81, 168, 4, 61, 120, 57, 208, 59, 144, 38, 178, 187, 14, 196, 19, 189, 193, 79, 4, 61, 8, 57, 25, 189, 116, 147, 53, 60, 197, 176, 0, 61, 72, 157, 38, 189, 117, 78, 6, 61, 235, 200, 24, 189, 176, 177, 193, 187, 122, 206, 188, 60, 111, 202, 36, 61, 16, 0, 1, 189, 52, 43, 34, 189, 64, 202, 215, 187, 130, 199, 226, 60, 0, 69, 84, 58, 90, 216, 176, 188, 131, 91, 34, 61, 150, 239, 180, 60, 176, 76, 32, 189, 62, 52, 32, 189, 122, 60, 171, 60, 152, 148, 13, 188, 186, 181, 245, 60, 206, 28, 119, 188, 15, 165, 9, 189, 190, 194, 236, 60, 4, 44, 27, 188, 203, 48, 14, 61, 137, 97, 155, 188, 186, 251, 43, 189, 144, 194, 19, 59, 82, 35, 182, 60, 94, 177, 222, 188, 32, 246, 142, 186, 184, 178, 183, 187, 32, 229, 33, 59, 107, 37, 17, 61, 140, 194, 29, 189, 120, 106, 252, 188, 55, 115, 153, 188, 232, 117, 209, 187, 71, 253, 17, 61, 112, 141, 82, 187, 86, 202, 220, 60, 152, 96, 131, 60, 235, 197, 215, 188, 182, 234, 134, 188, 94, 51, 233, 60, 14, 89, 211, 188, 165, 238, 1, 189, 136, 60, 187, 187, 93, 20, 8, 61, 92, 113, 46, 188, 112, 190, 159, 59, 187, 124, 187, 188, 158, 197, 252, 60, 48, 50, 25, 59, 19, 133, 45, 189, 62, 48, 137, 188, 224, 197, 254, 187, 3, 209, 30, 61, 101, 255, 41, 61, 90, 117, 245, 60, 48, 140, 5, 187, 100, 151, 162, 188, 48, 160, 182, 187, 202, 186, 224, 60, 252, 111, 120, 188, 176, 114, 10, 188, 34, 10, 190, 60, 216, 202, 86, 188, 128, 144, 51, 187, 106, 175, 241, 188, 49, 86, 43, 61, 80, 189, 176, 187, 248, 26, 194, 188, 166, 43, 32, 189, 230, 34, 42, 189, 65, 105, 169, 188, 34, 153, 214, 60, 32, 52, 137, 58, 224, 101, 226, 186, 78, 254, 234, 60, 253, 75, 11, 61, 54, 71, 95, 188, 40, 4, 97, 60, 150, 134, 176, 60, 154, 167, 252, 60, 106, 229, 210, 188, 250, 86, 25, 189, 205, 153, 211, 188, 16, 38, 224, 187, 41, 138, 24, 61, 104, 76, 32, 189, 109, 198, 145, 188, 250, 238, 0, 189, 0, 158, 30, 60, 78, 194, 251, 60, 238, 195, 191, 188, 176, 233, 103, 187, 24, 123, 221, 187, 166, 147, 18, 189, 168, 6, 211, 59, 76, 38, 150, 60, 96, 9, 54, 59, 54, 149, 224, 60, 16, 166, 184, 59, 144, 247, 133, 59, 152, 29, 29, 189, 97, 7, 191, 188, 60, 196, 76, 60, 195, 183, 3, 61, 96, 17, 248, 187, 170, 1, 174, 60, 0, 87, 17, 189, 159, 149, 210, 188, 123, 29, 169, 188, 106, 153, 255, 60, 70, 87, 194, 60, 74, 213, 97, 188, 128, 8, 246, 57, 58, 49, 137, 188, 243, 18, 14, 61, 177, 218, 41, 61, 155, 177, 23, 61, 187, 172, 7, 61, 57, 132, 194, 188, 231, 22, 25, 61, 32, 140, 221, 186, 188, 74, 52, 188, 120, 240, 215, 59, 144, 63, 149, 59, 128, 245, 70, 187, 126, 147, 250, 60, 154, 198, 173, 60, 160, 105, 165, 187, 64, 148, 243, 59, 217, 222, 34, 189, 90, 179, 140, 60, 69, 28, 18, 61, 16, 115, 25, 189, 230, 90, 191, 60, 168, 83, 133, 59, 162, 174, 230, 60, 188, 126, 153, 188, 128, 196, 133, 60, 246, 85, 231, 60, 238, 62, 157, 60, 188, 80, 88, 60, 133, 39, 212, 188, 240, 19, 125, 60, 188, 93, 19, 188, 113, 120, 156, 188, 229, 13, 47, 61, 56, 204, 148, 187, 82, 33, 212, 188, 53, 70, 46, 61, 4, 49, 30, 189, 150, 237, 129, 188, 144, 54, 143, 59, 94, 212, 91, 188, 84, 32, 128, 188, 58, 13, 218, 60, 78, 105, 198, 60, 117, 250, 16, 61, 126, 22, 211, 60, 75, 58, 19, 61, 29, 8, 14, 189, 54, 6, 29, 189, 21, 66, 23, 61, 222, 196, 169, 188, 102, 223, 161, 60, 59, 96, 8, 61, 32, 188, 159, 187, 174, 105, 248, 188, 217, 224, 5, 61, 184, 192, 129, 188, 128, 203, 145, 59, 134, 73, 243, 60, 160, 61, 110, 187, 25, 255, 35, 61, 64, 165, 6, 186, 222, 134, 178, 60, 203, 219, 168, 188, 14, 29, 205, 60, 70, 180, 214, 188, 212, 60, 190, 188, 192, 87, 51, 60, 104, 160, 113, 60, 22, 221, 244, 60, 128, 233, 106, 187, 164, 195, 144, 60, 127, 172, 9, 61, 92, 232, 247, 188, 62, 136, 234, 60, 128, 95, 212, 57, 38, 136, 11, 189, 185, 156, 149, 188, 0, 197, 70, 57, 46, 64, 174, 60, 184, 152, 40, 188, 20, 254, 100, 60, 117, 25, 22, 61, 225, 245, 16, 189, 144, 131, 61, 59, 241, 21, 47, 61, 104, 130, 248, 187, 70, 165, 30, 189, 194, 218, 217, 60, 234, 0, 100, 188, 82, 246, 30, 189, 244, 155, 28, 189, 28, 203, 13, 188, 128, 24, 176, 58, 83, 159, 204, 188, 80, 232, 251, 188, 134, 79, 223, 188, 240, 216, 86, 187, 96, 55, 8, 188, 90, 142, 224, 60, 52, 130, 42, 60, 174, 216, 222, 60, 56, 177, 219, 59, 119, 135, 40, 61, 24, 168, 85, 60, 238, 59, 156, 60, 54, 63, 171, 188, 32, 55, 159, 60, 94, 173, 68, 188, 216, 206, 201, 59, 11, 217, 15, 189, 114, 224, 219, 60, 28, 116, 9, 189, 214, 138, 153, 60, 35, 245, 37, 61, 168, 0, 44, 60, 178, 240, 101, 188, 98, 140, 30, 189, 224, 47, 213, 58, 145, 98, 32, 61, 112, 212, 8, 60, 26, 85, 215, 60, 166, 8, 166, 188, 216, 221, 89, 60, 240, 162, 172, 59, 96, 82, 200, 186, 72, 94, 245, 187, 220, 96, 75, 60, 198, 45, 168, 60, 35, 13, 28, 61, 182, 23, 235, 60, 88, 92, 43, 189, 70, 191, 249, 188, 202, 64, 197, 60, 180, 17, 106, 60, 88, 176, 17, 60, 86, 139, 36, 189, 146, 19, 138, 60, 234, 199, 188, 60, 34, 194, 19, 189, 78, 95, 164, 60, 46, 41, 200, 60, 96, 112, 14, 188, 253, 157, 14, 61, 217, 147, 43, 61, 158, 209, 255, 188, 206, 21, 254, 60, 190, 177, 63, 188, 82, 8, 193, 188, 205, 84, 34, 61, 167, 80, 42, 61, 244, 61, 12, 188, 4, 106, 194, 188, 154, 190, 194, 60, 86, 214, 237, 60, 11, 108, 168, 188, 158, 80, 111, 188, 240, 99, 91, 60, 6, 98, 180, 60, 86, 141, 19, 189, 94, 167, 16, 189, 162, 219, 187, 60, 152, 23, 179, 187, 196, 146, 165, 188, 226, 152, 77, 188, 45, 125, 149, 188, 120, 59, 39, 189, 200, 117, 181, 188, 96, 239, 68, 188, 10, 211, 63, 188, 31, 162, 19, 189, 236, 226, 53, 188, 96, 33, 30, 59, 96, 239, 83, 59, 134, 100, 238, 60, 62, 254, 209, 60, 200, 187, 199, 59, 88, 53, 172, 188, 0, 112, 99, 55, 2, 81, 170, 60, 170, 10, 120, 188, 28, 75, 5, 188, 248, 108, 126, 188, 80, 217, 148, 188, 217, 236, 2, 189, 16, 52, 210, 187, 254, 200, 41, 189, 210, 238, 242, 60, 241, 6, 218, 188, 236, 226, 85, 60, 230, 237, 35, 189, 54, 15, 140, 60, 176, 92, 82, 59, 80, 202, 79, 187, 118, 90, 183, 60, 251, 114, 173, 188, 50, 169, 115, 188, 230, 194, 181, 60, 119, 233, 197, 188, 155, 176, 21, 61, 162, 14, 211, 60, 74, 101, 140, 60, 210, 101, 8, 189, 0, 165, 78, 185, 64, 160, 163, 58, 133, 29, 31, 189, 232, 192, 36, 188, 7, 183, 148, 188, 100, 144, 159, 188, 0, 85, 74, 186, 40, 220, 83, 60, 55, 138, 46, 189, 8, 193, 180, 188, 99, 85, 46, 189, 68, 191, 153, 60, 8, 85, 49, 60, 42, 127, 228, 60, 109, 50, 157, 188, 199, 120, 7, 61, 160, 237, 103, 187, 128, 231, 84, 59, 172, 99, 116, 60, 180, 52, 86, 188, 180, 78, 69, 60, 120, 120, 168, 187, 46, 223, 139, 60, 255, 32, 14, 61, 208, 173, 252, 187, 198, 234, 132, 60, 126, 239, 185, 188, 12, 13, 65, 60, 84, 137, 40, 189, 3, 12, 8, 189, 208, 16, 48, 60, 120, 216, 148, 59, 164, 249, 100, 60, 92, 202, 63, 60, 161, 64, 10, 61, 251, 94, 4, 61, 221, 165, 41, 189, 208, 4, 175, 187, 17, 193, 201, 188, 194, 195, 147, 60, 139, 31, 45, 189, 9, 241, 0, 61, 159, 81, 6, 61, 211, 250, 13, 61, 70, 73, 194, 60, 63, 165, 43, 61, 88, 213, 232, 187, 32, 225, 32, 189, 128, 127, 21, 187, 39, 141, 0, 61, 108, 221, 88, 60, 212, 66, 239, 188, 10, 32, 252, 60, 16, 141, 16, 187, 192, 110, 91, 58, 168, 74, 158, 188, 196, 192, 147, 60, 32, 163, 10, 60, 32, 81, 152, 58, 122, 108, 174, 60, 172, 64, 22, 189, 224, 80, 35, 187, 0, 250, 17, 59, 0, 18, 204, 184, 22, 64, 249, 60, 202, 94, 207, 60, 156, 174, 224, 188, 232, 253, 20, 189, 132, 173, 94, 60, 205, 161, 170, 188, 160, 244, 137, 186, 224, 99, 68, 60, 156, 221, 21, 189, 144, 127, 137, 59, 24, 237, 152, 187, 253, 162, 37, 61, 0, 174, 188, 57, 99, 233, 31, 189, 0, 252, 51, 184, 191, 151, 11, 61, 137, 96, 44, 61, 193, 252, 35, 61, 197, 80, 36, 61, 174, 24, 245, 60, 111, 75, 3, 61, 229, 220, 29, 61, 110, 39, 219, 60, 238, 235, 227, 60, 248, 3, 62, 60, 174, 116, 156, 188, 150, 42, 176, 60, 241, 202, 28, 61, 71, 185, 10, 61, 21, 192, 19, 61, 4, 64, 120, 60, 128, 95, 141, 186, 42, 192, 177, 60, 196, 254, 218, 188, 204, 232, 116, 60, 128, 229, 10, 186, 128, 248, 213, 57, 82, 117, 170, 60, 0, 239, 71, 187, 68, 177, 39, 189, 126, 228, 7, 189, 62, 241, 221, 60, 33, 191, 150, 188, 171, 245, 26, 189, 89, 208, 171, 188, 208, 172, 124, 60, 132, 122, 94, 188, 96, 175, 74, 187, 232, 136, 59, 188, 250, 230, 236, 60, 195, 8, 20, 61, 233, 222, 3, 61, 58, 148, 33, 189, 143, 83, 43, 189, 113, 117, 215, 188, 85, 147, 190, 188, 62, 27, 166, 60, 184, 174, 133, 187, 254, 141, 250, 188, 218, 78, 1, 189, 228, 189, 164, 188, 240, 167, 232, 59, 138, 64, 111, 188, 201, 190, 37, 189, 236, 61, 36, 188, 241, 159, 6, 61, 130, 8, 228, 60, 142, 64, 207, 60, 124, 140, 105, 188, 42, 131, 250, 60, 208, 174, 125, 187, 52, 190, 109, 188, 34, 249, 203, 188, 144, 163, 98, 188, 184, 185, 24, 189, 32, 236, 229, 59, 199, 0, 241, 188, 155, 248, 20, 189, 80, 70, 29, 59, 186, 4, 183, 188, 132, 142, 235, 188, 121, 22, 209, 188, 167, 78, 170, 188, 213, 107, 206, 188, 247, 191, 46, 61, 17, 95, 142, 188, 0, 142, 221, 57, 10, 179, 214, 60, 154, 90, 31, 189, 24, 145, 5, 60, 128, 199, 154, 58, 246, 198, 238, 60, 176, 238, 181, 59, 134, 141, 187, 60, 208, 44, 94, 59, 208, 115, 12, 59, 34, 187, 172, 188, 62, 50, 233, 188, 98, 6, 224, 60, 64, 92, 84, 186, 90, 64, 113, 188, 210, 122, 176, 60, 178, 112, 225, 188, 56, 84, 29, 60, 156, 13, 113, 60, 254, 254, 207, 60, 164, 131, 134, 188, 152, 37, 96, 60, 249, 200, 163, 188, 28, 210, 176, 188, 30, 223, 210, 60, 10, 97, 66, 188, 253, 160, 26, 61, 42, 227, 180, 60, 166, 138, 227, 60, 162, 214, 145, 60, 22, 15, 230, 188, 166, 146, 198, 188, 64, 36, 7, 186, 73, 226, 4, 61, 169, 140, 29, 61, 122, 97, 219, 188, 195, 247, 42, 61, 199, 172, 8, 189, 40, 185, 161, 60, 165, 139, 38, 61, 112, 137, 86, 59, 87, 107, 200, 188, 248, 24, 141, 60, 9, 10, 32, 61, 162, 144, 221, 188, 154, 148, 199, 60, 12, 118, 33, 189, 103, 229, 31, 189, 244, 23, 27, 189, 41, 85, 33, 61, 219, 238, 237, 188, 216, 150, 239, 187, 128, 128, 129, 57, 120, 55, 153, 60, 48, 62, 68, 59, 192, 37, 110, 188, 14, 28, 200, 60, 82, 108, 148, 188, 184, 188, 3, 188, 8, 161, 148, 188, 75, 118, 39, 61, 0, 230, 6, 186, 208, 11, 241, 187, 0, 224, 148, 184, 222, 228, 238, 60, 193, 139, 38, 189, 124, 251, 23, 188, 161, 207, 168, 188, 24, 143, 20, 60, 32, 22, 147, 60, 128, 246, 32, 189, 168, 67, 39, 60, 88, 186, 165, 187, 154, 51, 1, 189, 234, 179, 228, 60, 64, 235, 196, 188, 150, 66, 183, 60, 16, 191, 255, 188, 233, 238, 26, 61, 212, 80, 75, 60, 178, 201, 193, 60, 30, 148, 237, 60, 16, 75, 90, 60, 247, 210, 5, 61, 42, 194, 66, 188, 152, 0, 14, 188, 45, 203, 16, 61, 185, 154, 132, 188, 248, 153, 170, 59, 16, 251, 138, 60, 9, 104, 42, 189, 161, 225, 33, 189, 72, 184, 239, 59, 191, 163, 13, 189, 6, 5, 202, 60, 128, 213, 186, 186, 254, 18, 14, 189, 210, 253, 213, 60, 192, 28, 190, 59, 242, 31, 228, 60, 176, 100, 115, 59, 93, 99, 28, 189, 204, 172, 49, 188, 70, 155, 209, 60, 84, 24, 53, 60, 60, 17, 36, 188, 196, 137, 23, 188, 103, 234, 32, 189, 250, 252, 173, 60, 73, 185, 207, 188, 120, 100, 41, 60, 143, 231, 4, 61, 29, 108, 220, 188, 118, 99, 237, 60, 209, 120, 44, 61, 245, 33, 186, 188, 189, 50, 46, 189, 192, 177, 39, 59, 6, 19, 208, 60, 9, 141, 38, 189, 63, 42, 249, 188, 58, 187, 147, 188, 115, 2, 168, 188, 92, 28, 222, 188, 47, 130, 5, 61, 186, 194, 222, 60, 14, 144, 235, 188, 50, 35, 207, 60, 227, 105, 17, 61, 7, 26, 40, 189, 166, 159, 167, 60, 128, 22, 238, 58, 192, 82, 222, 58, 176, 219, 99, 60, 129, 93, 18, 61, 128, 135, 144, 185, 124, 248, 39, 188, 138, 68, 12, 189, 61, 97, 159, 188, 62, 184, 189, 60, 238, 116, 231, 188, 164, 128, 20, 60, 2, 210, 238, 60, 246, 181, 231, 60, 64, 221, 153, 58, 179, 152, 198, 188, 80, 114, 13, 60, 192, 4, 229, 59, 203, 133, 37, 61, 106, 245, 247, 60, 31, 14, 26, 61, 184, 245, 70, 60, 232, 183, 210, 59, 216, 252, 223, 59, 112, 0, 208, 187, 70, 233, 185, 188, 165, 12, 20, 189, 203, 207, 24, 61, 200, 228, 228, 187, 224, 44, 125, 59, 7, 234, 160, 188, 242, 92, 193, 60, 113, 254, 19, 189, 166, 75, 17, 189, 138, 65, 126, 188, 166, 152, 165, 60, 11, 247, 0, 61, 104, 202, 3, 188, 7, 133, 241, 188, 239, 249, 34, 189, 209, 85, 46, 61, 107, 203, 0, 61, 88, 128, 13, 188, 173, 154, 187, 188, 48, 144, 174, 187, 52, 249, 77, 60, 208, 156, 15, 187, 132, 228, 178, 188, 125, 22, 45, 61, 40, 66, 116, 60, 38, 253, 204, 60, 81, 216, 15, 189, 210, 37, 205, 60, 79, 229, 214, 188, 140, 44, 17, 60, 22, 46, 129, 60, 96, 207, 178, 58, 128, 141, 49, 188, 8, 195, 41, 60, 16, 77, 177, 188, 226, 173, 184, 60, 140, 107, 30, 188, 155, 246, 14, 61, 228, 197, 1, 60, 189, 207, 29, 189, 225, 162, 43, 61, 224, 30, 101, 60, 24, 230, 5, 189, 220, 131, 19, 60, 182, 52, 129, 60, 158, 152, 14, 189, 24, 225, 213, 187, 145, 182, 22, 189, 194, 88, 169, 60, 140, 110, 9, 60, 226, 75, 2, 189, 45, 252, 136, 188, 9, 56, 152, 188, 164, 91, 175, 188, 103, 232, 11, 61, 213, 246, 146, 188, 2, 72, 158, 60, 193, 208, 23, 61, 88, 191, 235, 59, 73, 201, 40, 61, 105, 99, 180, 188, 251, 154, 19, 61, 0, 210, 237, 184, 179, 70, 25, 61, 192, 91, 225, 59, 12, 142, 42, 60, 203, 240, 18, 189, 184, 2, 59, 60, 7, 154, 230, 188, 156, 244, 75, 60, 182, 169, 42, 189, 222, 197, 133, 60, 102, 104, 147, 60, 91, 30, 17, 61, 130, 112, 194, 60, 200, 114, 13, 188, 176, 20, 226, 59, 102, 129, 210, 60, 150, 196, 194, 60, 70, 190, 225, 60, 25, 251, 7, 61, 30, 189, 107, 188, 208, 34, 41, 59, 158, 57, 228, 60, 210, 228, 250, 188, 1, 158, 1, 189, 57, 124, 8, 61, 196, 197, 10, 189, 64, 130, 147, 58, 236, 93, 133, 188, 40, 138, 213, 188, 48, 160, 38, 59, 240, 45, 69, 59, 208, 41, 185, 59, 90, 6, 253, 60, 186, 58, 241, 60, 92, 125, 72, 60, 92, 14, 106, 60, 167, 219, 139, 188, 239, 143, 33, 61, 144, 216, 46, 60, 176, 144, 64, 59, 96, 87, 52, 59, 156, 28, 76, 60, 102, 3, 124, 188, 175, 225, 15, 61, 49, 211, 37, 61, 164, 214, 111, 188, 249, 87, 15, 61, 230, 205, 156, 188, 96, 57, 233, 59, 32, 97, 209, 58, 156, 208, 66, 60, 251, 47, 44, 61, 246, 22, 220, 60, 8, 81, 5, 189, 46, 69, 128, 188, 184, 241, 239, 188, 235, 48, 146, 188, 10, 229, 245, 60, 243, 89, 46, 61, 36, 14, 103, 60, 44, 87, 93, 188, 36, 81, 57, 188, 129, 111, 14, 189, 24, 168, 143, 188, 94, 2, 176, 60, 64, 196, 0, 186, 139, 137, 38, 61, 245, 136, 207, 188, 196, 36, 41, 188, 200, 68, 5, 188, 177, 94, 147, 188, 192, 180, 208, 59, 52, 165, 200, 188, 152, 35, 145, 60, 176, 147, 43, 60, 238, 183, 194, 188, 154, 174, 227, 188, 10, 119, 37, 189, 74, 23, 123, 188, 33, 201, 253, 188, 149, 153, 28, 189, 104, 191, 228, 187, 190, 219, 163, 60, 29, 181, 0, 61, 76, 9, 19, 60, 128, 121, 135, 186, 198, 238, 156, 60, 192, 102, 7, 60, 156, 254, 231, 188, 74, 189, 245, 60, 128, 178, 60, 60, 164, 84, 26, 60, 151, 183, 16, 61, 109, 115, 41, 61, 32, 241, 192, 59, 108, 34, 65, 60, 184, 68, 213, 59, 12, 77, 146, 60, 16, 147, 145, 60, 117, 213, 19, 61, 176, 52, 150, 59, 98, 91, 209, 60, 45, 28, 16, 61, 80, 228, 223, 59, 43, 12, 47, 61, 11, 127, 16, 189, 114, 74, 210, 188, 40, 254, 244, 187, 87, 66, 178, 188, 4, 102, 40, 189, 121, 12, 0, 189, 114, 159, 221, 188, 230, 201, 16, 189, 32, 202, 57, 60, 20, 133, 2, 188, 48, 54, 159, 188, 81, 130, 166, 188, 94, 141, 186, 188, 108, 61, 123, 60, 183, 16, 21, 61, 122, 46, 185, 60, 154, 247, 176, 188, 76, 80, 154, 188, 101, 251, 141, 188, 8, 140, 67, 188, 150, 248, 244, 60, 88, 51, 5, 60, 237, 211, 21, 189, 207, 75, 39, 189, 84, 134, 105, 60, 125, 20, 11, 61, 197, 59, 173, 188, 170, 222, 186, 60, 126, 152, 149, 188, 8, 77, 22, 188, 36, 14, 20, 189, 120, 118, 181, 59, 24, 253, 19, 189, 82, 96, 159, 60, 191, 205, 19, 61, 252, 200, 64, 60, 160, 123, 210, 186, 178, 181, 199, 60, 127, 95, 41, 61, 55, 187, 7, 61, 138, 241, 157, 60, 80, 253, 189, 59, 218, 67, 245, 60, 115, 75, 46, 61, 184, 9, 16, 60, 224, 221, 55, 59, 89, 75, 7, 61, 242, 26, 138, 60, 223, 204, 0, 189, 202, 155, 207, 188, 210, 225, 7, 189, 253, 38, 8, 189, 128, 90, 25, 58, 41, 133, 38, 189, 9, 61, 2, 189, 32, 12, 35, 188, 169, 6, 138, 188, 102, 113, 133, 60, 98, 64, 141, 188, 88, 86, 244, 59, 200, 42, 238, 187, 128, 199, 139, 58, 2, 153, 230, 60, 98, 63, 235, 188, 184, 34, 57, 188, 97, 28, 3, 61, 36, 18, 136, 60, 214, 254, 32, 189, 123, 249, 16, 189, 16, 128, 172, 59, 176, 86, 96, 59, 178, 147, 231, 60, 70, 193, 171, 60, 151, 92, 34, 61, 69, 118, 41, 61, 176, 167, 250, 188, 22, 197, 211, 60, 233, 221, 38, 189, 70, 47, 176, 188, 48, 104, 190, 59, 161, 102, 217, 188, 24, 214, 145, 187, 94, 122, 214, 60, 48, 232, 237, 59, 158, 232, 25, 189, 16, 214, 38, 189, 239, 78, 204, 188, 133, 112, 32, 61, 200, 246, 2, 188, 120, 25, 251, 188, 185, 17, 189, 188, 157, 240, 40, 189, 250, 247, 187, 188, 48, 168, 58, 187, 100, 86, 154, 188, 98, 91, 209, 60, 108, 179, 230, 188, 64, 135, 71, 60, 114, 227, 150, 188, 44, 228, 170, 188, 248, 154, 173, 187, 154, 96, 197, 60, 218, 190, 232, 60, 30, 133, 227, 60, 0, 2, 224, 59, 4, 84, 15, 189, 82, 35, 233, 60, 192, 51, 241, 187, 84, 203, 25, 188, 108, 207, 90, 188, 122, 40, 9, 189, 194, 186, 173, 60, 140, 100, 77, 60, 237, 212, 231, 188, 128, 61, 79, 188, 226, 169, 240, 60, 126, 233, 127, 188, 111, 158, 25, 61, 159, 21, 14, 189, 26, 20, 241, 60, 38, 71, 158, 60, 240, 239, 128, 187, 154, 235, 34, 189, 148, 38, 31, 188, 32, 25, 14, 188, 146, 126, 67, 188, 40, 160, 160, 187, 181, 79, 13, 61, 48, 241, 1, 189, 84, 71, 15, 60, 248, 124, 156, 60, 152, 169, 33, 189, 3, 4, 37, 61, 99, 111, 16, 189, 130, 6, 81, 188, 64, 243, 12, 189, 232, 128, 139, 187, 77, 164, 156, 188, 187, 164, 23, 61, 130, 207, 122, 188, 96, 10, 224, 59, 103, 84, 184, 188, 86, 186, 169, 60, 22, 254, 250, 60, 56, 136, 248, 187, 121, 191, 166, 188, 216, 24, 53, 60, 184, 162, 134, 60, 223, 171, 46, 189, 94, 66, 177, 60, 109, 193, 45, 189, 96, 53, 15, 188, 176, 169, 61, 59, 6, 233, 123, 188, 200, 125, 243, 188, 82, 226, 189, 60, 133, 117, 18, 61, 243, 144, 177, 188, 9, 230, 214, 188, 156, 97, 49, 188, 150, 32, 229, 188, 216, 157, 14, 189, 126, 14, 252, 60, 152, 190, 161, 187, 211, 109, 29, 61, 216, 85, 143, 188, 144, 95, 21, 59, 59, 187, 38, 61, 120, 112, 170, 188, 216, 211, 180, 187, 112, 84, 133, 59, 128, 148, 199, 57, 232, 104, 37, 188, 133, 12, 44, 189, 6, 233, 140, 188, 122, 215, 88, 188, 43, 112, 170, 188, 108, 24, 56, 60, 196, 161, 86, 60, 90, 175, 99, 188, 160, 69, 67, 188, 178, 237, 179, 60, 130, 247, 149, 60, 236, 111, 58, 188, 199, 47, 46, 189, 112, 193, 181, 59, 24, 220, 198, 188, 214, 1, 181, 60, 82, 41, 23, 189, 24, 218, 203, 59, 212, 238, 187, 188, 227, 138, 24, 189, 22, 253, 231, 60, 12, 146, 31, 189, 15, 146, 41, 61, 6, 240, 169, 188, 16, 131, 251, 59, 17, 154, 44, 189, 248, 57, 122, 60, 244, 74, 12, 189, 25, 157, 33, 189, 172, 48, 149, 60, 0, 187, 153, 59, 80, 14, 230, 59, 22, 210, 177, 60, 189, 58, 17, 61, 247, 72, 13, 189, 63, 161, 174, 188, 233, 53, 12, 189, 138, 253, 223, 188, 66, 181, 182, 60, 149, 249, 44, 61, 206, 238, 38, 189, 180, 252, 61, 188, 160, 96, 112, 187, 15, 170, 9, 61, 52, 253, 144, 60, 32, 78, 81, 187, 158, 250, 142, 60, 181, 247, 39, 61, 143, 215, 128, 188, 244, 210, 55, 188, 98, 162, 163, 60, 168, 204, 148, 187, 174, 95, 251, 60, 117, 241, 153, 188, 220, 95, 140, 188, 0, 157, 235, 186, 248, 120, 51, 60, 48, 183, 14, 187, 14, 102, 9, 189, 48, 210, 65, 59, 24, 137, 34, 189, 38, 69, 174, 60, 32, 135, 156, 58, 212, 23, 36, 188, 43, 190, 4, 61, 148, 49, 47, 60, 16, 162, 3, 59, 107, 37, 136, 188, 18, 173, 246, 60, 42, 166, 44, 189, 186, 209, 254, 60, 115, 249, 43, 61, 52, 93, 56, 60, 171, 243, 164, 188, 160, 222, 113, 59, 218, 27, 252, 60, 0, 11, 171, 186, 112, 77, 18, 59, 176, 143, 41, 60, 16, 132, 109, 188, 150, 127, 84, 188, 240, 32, 120, 60, 59, 180, 206, 188, 50, 45, 130, 60, 240, 65, 88, 60, 119, 89, 23, 61, 228, 81, 116, 60, 253, 172, 139, 188, 86, 172, 185, 60, 162, 9, 200, 60, 34, 60, 171, 188, 74, 185, 176, 60, 202, 229, 179, 60, 64, 35, 98, 59, 202, 190, 208, 188, 22, 226, 191, 60, 100, 210, 88, 60, 61, 226, 31, 61, 239, 214, 211, 188, 2, 215, 166, 60, 192, 6, 171, 59, 62, 198, 231, 188, 158, 227, 158, 188, 0, 173, 102, 186, 93, 21, 5, 61, 238, 102, 188, 60, 91, 160, 34, 61, 200, 49, 232, 59, 100, 212, 9, 60, 136, 188, 242, 59, 59, 89, 28, 61, 176, 255, 221, 187, 241, 175, 14, 189, 88, 215, 36, 60, 82, 88, 164, 60, 172, 164, 54, 188, 243, 114, 36, 61, 160, 45, 64, 60, 140, 175, 24, 188, 0, 221, 237, 185, 72, 153, 246, 188, 0, 218, 50, 59, 240, 174, 82, 60, 162, 67, 38, 189, 84, 221, 25, 60, 40, 40, 130, 60, 220, 254, 24, 189, 125, 117, 5, 61, 226, 246, 218, 60, 160, 148, 140, 58, 84, 167, 141, 60, 236, 37, 45, 188, 193, 202, 10, 61, 223, 202, 22, 61, 174, 86, 189, 188, 139, 16, 244, 188, 221, 235, 2, 61, 118, 242, 211, 60, 220, 87, 45, 188, 6, 71, 202, 188, 68, 78, 123, 188, 197, 205, 22, 189, 254, 27, 178, 60, 49, 183, 38, 61, 218, 88, 182, 60, 137, 5, 8, 61, 242, 168, 173, 60, 242, 167, 33, 189, 184, 92, 191, 187, 186, 15, 212, 60, 65, 194, 208, 188, 98, 107, 42, 189, 118, 126, 237, 60, 194, 247, 72, 188, 66, 61, 82, 188, 27, 9, 16, 61, 72, 143, 179, 187, 64, 141, 164, 186, 154, 187, 154, 188, 131, 22, 40, 189, 84, 40, 60, 188, 240, 146, 10, 187, 36, 204, 85, 60, 12, 73, 79, 188, 24, 28, 212, 59, 35, 103, 18, 189, 215, 178, 42, 189, 159, 84, 218, 188, 120, 86, 217, 188, 20, 213, 25, 189, 104, 20, 48, 188, 69, 63, 20, 61, 160, 182, 137, 187, 128, 230, 16, 189, 0, 40, 190, 186, 0, 53, 1, 189, 222, 96, 182, 188, 132, 53, 45, 189, 208, 89, 42, 60, 96, 127, 139, 187, 8, 249, 160, 60, 114, 177, 189, 60, 193, 124, 233, 188, 159, 55, 37, 189, 36, 91, 139, 60, 166, 191, 168, 60, 152, 255, 99, 188, 5, 143, 24, 61, 240, 28, 62, 188, 80, 79, 214, 187, 104, 161, 157, 188, 48, 65, 167, 187, 24, 233, 240, 59, 192, 84, 175, 59, 187, 127, 20, 61, 242, 165, 140, 188, 198, 231, 239, 60, 150, 185, 205, 188, 224, 107, 208, 188, 209, 148, 44, 61, 156, 230, 124, 60, 140, 138, 66, 60, 123, 249, 1, 189, 90, 69, 5, 189, 170, 72, 245, 188, 238, 130, 251, 60, 87, 65, 0, 61, 72, 183, 93, 188, 109, 205, 4, 61, 26, 124, 167, 60, 50, 162, 244, 188, 82, 196, 146, 60, 48, 54, 65, 59, 8, 37, 161, 187, 127, 30, 194, 188, 150, 205, 149, 60, 212, 154, 128, 60, 26, 187, 177, 188, 168, 227, 231, 188, 5, 144, 41, 61, 68, 139, 103, 188, 112, 67, 77, 59, 37, 49, 17, 61, 128, 74, 38, 187, 185, 220, 13, 61, 55, 146, 229, 188, 64, 15, 127, 187, 100, 20, 57, 188, 157, 1, 4, 189, 62, 72, 186, 60, 88, 184, 189, 188, 3, 87, 186, 188, 220, 215, 68, 188, 168, 37, 160, 60, 19, 179, 37, 61, 43, 228, 33, 61, 75, 91, 0, 61, 73, 7, 206, 188, 163, 62, 213, 188, 10, 17, 252, 60, 183, 108, 131, 188, 53, 61, 3, 61, 92, 208, 30, 188, 104, 207, 32, 189, 32, 142, 88, 60, 104, 87, 75, 188, 24, 53, 153, 187, 34, 218, 159, 60, 64, 76, 147, 187, 123, 53, 153, 188, 0, 10, 143, 58, 241, 178, 142, 188, 216, 171, 119, 60, 112, 123, 35, 187, 212, 7, 183, 188, 85, 224, 19, 61, 242, 119, 180, 60, 160, 0, 5, 187, 165, 147, 40, 61, 141, 198, 8, 61, 124, 149, 23, 60, 0, 231, 237, 187, 239, 125, 164, 188, 195, 221, 24, 61, 153, 205, 28, 189, 48, 220, 24, 189, 106, 180, 97, 188, 80, 37, 22, 60, 212, 164, 14, 188, 240, 42, 127, 59, 76, 143, 226, 188, 188, 51, 213, 188, 160, 155, 78, 187, 0, 191, 4, 189, 27, 230, 27, 189, 140, 126, 118, 60, 166, 175, 99, 188, 224, 149, 27, 189, 144, 253, 223, 188, 142, 168, 199, 60, 213, 106, 135, 188, 0, 73, 39, 189, 104, 118, 132, 60, 69, 166, 13, 61, 0, 174, 146, 187, 208, 195, 208, 187, 236, 32, 25, 60, 106, 216, 11, 189, 171, 63, 174, 188, 169, 247, 211, 188, 173, 185, 38, 61, 98, 184, 126, 188, 149, 144, 153, 188, 244, 202, 15, 188, 128, 65, 144, 185, 229, 96, 135, 188, 40, 237, 76, 60, 117, 117, 16, 61, 196, 34, 32, 188, 244, 113, 92, 60, 206, 29, 175, 60, 120, 209, 186, 59, 130, 120, 212, 60, 208, 110, 93, 188, 44, 157, 15, 188, 208, 207, 81, 188, 174, 199, 194, 188, 100, 165, 98, 60, 215, 40, 46, 61, 186, 42, 133, 60, 8, 84, 6, 188, 244, 46, 19, 189, 160, 147, 89, 188, 192, 72, 75, 60, 89, 90, 204, 188, 162, 192, 234, 188, 192, 209, 160, 60, 254, 58, 168, 60, 207, 144, 184, 188, 136, 91, 174, 59, 25, 25, 39, 61, 64, 213, 106, 58, 43, 212, 238, 188, 161, 20, 11, 61, 8, 90, 153, 187, 241, 168, 3, 61, 140, 93, 105, 60, 178, 200, 155, 60, 155, 199, 33, 61, 194, 48, 238, 60, 207, 182, 4, 61, 59, 8, 18, 61, 144, 180, 211, 188, 202, 200, 182, 60, 38, 85, 4, 189, 100, 43, 57, 60, 48, 30, 10, 59, 242, 150, 252, 60, 214, 89, 250, 60, 186, 191, 25, 189, 37, 148, 31, 189, 74, 199, 123, 188, 250, 163, 207, 188, 32, 91, 123, 60, 128, 80, 5, 188, 114, 71, 208, 60, 150, 231, 89, 188, 208, 128, 149, 59, 79, 138, 130, 188, 112, 185, 99, 60, 200, 108, 231, 59, 97, 44, 187, 188, 32, 180, 155, 59, 45, 169, 25, 189, 175, 254, 30, 61, 80, 46, 97, 60, 248, 17, 175, 59, 192, 114, 8, 186, 234, 213, 37, 189, 216, 143, 253, 188, 24, 121, 11, 60, 11, 121, 192, 188, 110, 137, 219, 188, 250, 74, 229, 60, 180, 241, 98, 60, 48, 178, 48, 59, 72, 123, 14, 60, 32, 156, 33, 188, 52, 216, 194, 188, 181, 212, 183, 188, 187, 247, 33, 61, 159, 247, 7, 189, 224, 56, 15, 188, 144, 20, 109, 59, 208, 220, 233, 188, 119, 252, 149, 188, 61, 108, 29, 61, 188, 12, 94, 188, 112, 230, 91, 187, 168, 107, 97, 60, 8, 55, 12, 189, 252, 191, 39, 189, 128, 103, 150, 59, 32, 54, 209, 187, 254, 253, 166, 60, 232, 96, 144, 60, 132, 10, 46, 188, 112, 219, 77, 187, 208, 14, 124, 60, 48, 69, 175, 59, 208, 44, 51, 59, 224, 126, 195, 59, 246, 242, 24, 189, 72, 19, 141, 188, 220, 17, 7, 189, 96, 161, 213, 59, 48, 217, 135, 59, 186, 138, 230, 60, 83, 148, 165, 188, 225, 134, 157, 188, 77, 84, 2, 61, 160, 106, 255, 58, 152, 88, 169, 187, 0, 90, 22, 189, 122, 52, 207, 60, 169, 186, 152, 188, 214, 236, 13, 189, 99, 41, 41, 189, 241, 96, 175, 188, 112, 228, 37, 189, 92, 133, 2, 189, 16, 25, 38, 187, 168, 175, 182, 187, 112, 203, 51, 60, 96, 68, 24, 188, 186, 28, 74, 188, 110, 33, 222, 60, 107, 196, 44, 61, 162, 165, 167, 60, 250, 249, 44, 189, 0, 159, 225, 57, 80, 68, 42, 187, 98, 117, 150, 188, 108, 93, 132, 188, 26, 148, 240, 60, 254, 34, 254, 188, 240, 107, 110, 187, 86, 160, 229, 60, 156, 124, 33, 189, 43, 43, 25, 61, 0, 73, 3, 187, 106, 250, 135, 60, 130, 58, 215, 60, 229, 6, 7, 189, 150, 233, 3, 189, 72, 228, 86, 60, 255, 181, 9, 61, 62, 52, 157, 60, 65, 249, 19, 61, 220, 49, 33, 189, 204, 236, 187, 188, 230, 50, 183, 188, 216, 186, 39, 60, 42, 210, 169, 60, 58, 177, 234, 60, 234, 26, 13, 189, 17, 44, 6, 61, 227, 89, 173, 188, 192, 99, 77, 187, 54, 39, 251, 188, 61, 246, 194, 188, 10, 120, 184, 60, 197, 182, 156, 188, 98, 195, 160, 188, 253, 111, 28, 61, 70, 71, 203, 60, 156, 41, 117, 60, 0, 95, 152, 60, 16, 43, 160, 188, 122, 111, 153, 60, 222, 46, 188, 60, 104, 79, 172, 187, 156, 226, 58, 188, 74, 205, 240, 60, 20, 208, 125, 188, 243, 237, 149, 188, 177, 154, 9, 189, 226, 68, 23, 189, 147, 73, 30, 189, 44, 129, 7, 189, 29, 194, 45, 189, 64, 110, 41, 186, 56, 169, 108, 60, 246, 212, 212, 60, 184, 5, 130, 187, 128, 218, 215, 186, 249, 60, 132, 188, 176, 4, 107, 59, 0, 221, 218, 186, 104, 243, 99, 60, 188, 168, 25, 60, 102, 60, 245, 60, 247, 168, 180, 188, 32, 88, 27, 187, 47, 87, 39, 61, 160, 91, 130, 60, 240, 71, 111, 188, 96, 85, 79, 59, 236, 37, 73, 188, 216, 214, 9, 189, 108, 237, 11, 60, 136, 160, 193, 188, 46, 193, 134, 188, 144, 221, 54, 188, 14, 192, 149, 60, 62, 162, 217, 60, 108, 230, 29, 188, 193, 139, 3, 61, 177, 43, 14, 61, 72, 109, 60, 188, 177, 229, 42, 189, 160, 203, 233, 58, 26, 140, 191, 60, 116, 72, 4, 189, 98, 191, 233, 60, 65, 55, 2, 61, 242, 235, 61, 188, 189, 182, 5, 61, 10, 73, 129, 60, 91, 176, 132, 188, 46, 184, 233, 60, 122, 168, 220, 188, 92, 142, 57, 188, 128, 36, 139, 59, 32, 107, 150, 188, 230, 69, 40, 189, 210, 184, 14, 189, 192, 165, 93, 58, 16, 13, 130, 59, 164, 72, 205, 188, 109, 139, 202, 188, 128, 206, 197, 57, 41, 192, 0, 61, 72, 86, 145, 59, 10, 172, 158, 60, 202, 19, 188, 188, 24, 140, 180, 59, 55, 164, 10, 189, 186, 255, 168, 188, 38, 195, 252, 60, 175, 139, 210, 188, 200, 67, 1, 189, 128, 120, 7, 59, 166, 67, 88, 188, 48, 188, 53, 188, 218, 86, 153, 60, 211, 99, 157, 188, 199, 227, 44, 61, 128, 245, 27, 186, 213, 184, 151, 188, 90, 73, 27, 189, 107, 41, 3, 61, 254, 107, 215, 60, 223, 213, 10, 61, 192, 201, 148, 187, 91, 236, 253, 188, 190, 229, 224, 60, 64, 86, 105, 59, 244, 20, 153, 60, 219, 97, 143, 188, 96, 210, 253, 187, 126, 158, 116, 188, 12, 84, 53, 188, 121, 210, 30, 61, 40, 167, 143, 188, 215, 220, 30, 189, 220, 209, 14, 60, 112, 108, 34, 189, 224, 110, 12, 187, 12, 184, 229, 188, 50, 184, 153, 60, 21, 154, 243, 188, 212, 5, 68, 60, 96, 22, 208, 186, 111, 190, 35, 61, 152, 225, 229, 59, 216, 10, 50, 60, 126, 230, 42, 189, 219, 199, 13, 61, 179, 207, 206, 188, 112, 229, 189, 187, 162, 40, 222, 60, 160, 169, 134, 58, 202, 126, 207, 60, 48, 231, 66, 187, 117, 154, 29, 61, 204, 167, 10, 189, 254, 211, 218, 60, 110, 243, 89, 188, 134, 116, 83, 188, 118, 45, 254, 60, 240, 125, 118, 188, 230, 4, 226, 60, 148, 45, 0, 188, 47, 173, 27, 189, 164, 78, 161, 60, 158, 135, 3, 189, 182, 46, 233, 60, 168, 242, 28, 60, 249, 237, 173, 188, 144, 126, 129, 188, 71, 147, 44, 189, 96, 90, 17, 189, 149, 246, 12, 61, 9, 254, 16, 61, 115, 18, 40, 189, 80, 228, 247, 59, 166, 239, 194, 60, 218, 252, 191, 60, 16, 198, 110, 188, 143, 81, 26, 189, 200, 18, 196, 188, 224, 88, 255, 187, 88, 83, 180, 59, 218, 232, 225, 60, 166, 46, 178, 60, 238, 215, 228, 188, 157, 158, 130, 188, 234, 74, 168, 188, 185, 253, 139, 188, 235, 87, 26, 189, 0, 171, 241, 58, 128, 244, 70, 186, 208, 46, 142, 187, 58, 51, 208, 60, 30, 179, 246, 60, 244, 205, 63, 188, 184, 155, 158, 187, 248, 44, 102, 188, 139, 59, 46, 61, 247, 169, 3, 189, 182, 88, 30, 189, 218, 148, 94, 188, 40, 91, 72, 188, 82, 191, 164, 188, 2, 79, 159, 60, 130, 146, 16, 189, 90, 221, 128, 188, 129, 59, 36, 61, 182, 53, 198, 188, 236, 145, 40, 60, 181, 255, 192, 188, 45, 97, 18, 61, 85, 250, 219, 188, 255, 157, 42, 189, 64, 98, 73, 60, 147, 216, 159, 188, 110, 47, 189, 60, 184, 39, 25, 60, 232, 241, 36, 189, 202, 103, 43, 189, 105, 231, 1, 61, 34, 135, 168, 60, 206, 153, 18, 189, 154, 241, 240, 188, 196, 72, 205, 188, 128, 124, 20, 60, 26, 186, 203, 60, 73, 27, 12, 61, 20, 51, 18, 189, 97, 203, 40, 189, 10, 224, 115, 188, 216, 44, 17, 60, 200, 14, 163, 187, 20, 247, 153, 60, 248, 95, 239, 59, 120, 62, 36, 188, 64, 180, 66, 58, 197, 27, 40, 189, 184, 123, 77, 60, 24, 115, 7, 189, 190, 49, 228, 60, 62, 95, 43, 189, 89, 255, 2, 61, 64, 29, 148, 58, 13, 100, 30, 61, 242, 9, 233, 188, 208, 217, 19, 59, 4, 134, 202, 188, 190, 18, 252, 60, 18, 143, 173, 60, 226, 211, 224, 60, 0, 13, 220, 186, 162, 211, 172, 60, 114, 246, 224, 60, 79, 161, 15, 189, 81, 204, 33, 61, 81, 82, 11, 189, 107, 104, 23, 189, 22, 80, 241, 60, 140, 84, 47, 188, 168, 136, 185, 188, 153, 110, 20, 61, 16, 7, 144, 60, 222, 53, 208, 60, 184, 204, 247, 59, 208, 154, 122, 187, 66, 230, 147, 60, 117, 115, 249, 188, 160, 24, 193, 59, 34, 197, 245, 60, 36, 113, 252, 188, 88, 108, 64, 188, 213, 202, 21, 61, 123, 48, 29, 189, 96, 128, 255, 187, 228, 94, 99, 188, 56, 159, 169, 187, 116, 155, 125, 60, 86, 197, 214, 60, 8, 100, 18, 188, 188, 195, 35, 188, 38, 80, 184, 188, 112, 250, 73, 60, 231, 139, 137, 188, 60, 65, 106, 60, 111, 195, 9, 189, 35, 190, 167, 188, 94, 249, 61, 188, 118, 228, 155, 188, 80, 110, 126, 187, 0, 231, 20, 58, 216, 205, 223, 187, 208, 142, 14, 188, 180, 174, 27, 188, 36, 84, 140, 60, 232, 35, 54, 60, 22, 228, 225, 60, 24, 174, 217, 187, 116, 117, 234, 188, 142, 76, 205, 60, 32, 13, 131, 58, 100, 220, 116, 60, 14, 92, 45, 189, 224, 66, 16, 187, 55, 60, 34, 61, 116, 220, 58, 60, 242, 89, 145, 60, 16, 126, 119, 60, 0, 144, 101, 184, 214, 219, 144, 188, 172, 187, 25, 60, 46, 122, 161, 60, 164, 209, 98, 60, 80, 105, 69, 59, 251, 26, 195, 188, 203, 115, 167, 188, 160, 15, 253, 186, 160, 23, 14, 59, 160, 195, 203, 187, 60, 215, 83, 188, 232, 53, 0, 189, 140, 209, 30, 188, 224, 253, 216, 186, 200, 145, 94, 60, 158, 124, 141, 188, 158, 209, 211, 60, 191, 181, 186, 188, 36, 240, 146, 60, 28, 80, 10, 60, 220, 165, 58, 60, 183, 46, 31, 61, 208, 158, 182, 188, 96, 81, 117, 59, 130, 240, 240, 60, 112, 69, 121, 188, 212, 23, 36, 188, 160, 214, 45, 59, 254, 171, 176, 60, 165, 180, 157, 188, 4, 29, 130, 60, 38, 62, 243, 60, 240, 180, 246, 188, 127, 74, 181, 188, 68, 24, 43, 60, 32, 163, 228, 58, 2, 172, 242, 60, 162, 169, 183, 60, 0, 53, 123, 60, 196, 64, 145, 60, 212, 217, 16, 188, 110, 79, 221, 60, 86, 111, 204, 60, 34, 104, 241, 60, 108, 110, 58, 60, 145, 119, 174, 188, 57, 135, 7, 61, 233, 244, 31, 189, 92, 190, 9, 189, 236, 17, 80, 60, 1, 182, 172, 188, 164, 48, 14, 60, 68, 126, 36, 189, 62, 159, 242, 60, 208, 209, 98, 60, 221, 71, 1, 61, 0, 63, 35, 60, 134, 191, 219, 60, 12, 223, 68, 60, 105, 24, 252, 188, 34, 155, 162, 60, 4, 218, 99, 188, 159, 113, 19, 61, 36, 154, 7, 188, 66, 130, 145, 60, 160, 164, 117, 187, 175, 36, 18, 61, 28, 96, 209, 188, 204, 25, 4, 60, 116, 216, 227, 188, 154, 182, 223, 60, 101, 98, 33, 61, 254, 116, 181, 60, 112, 100, 131, 187, 145, 134, 39, 61, 30, 101, 10, 189, 15, 24, 34, 189, 60, 245, 100, 188, 59, 176, 41, 61, 23, 199, 171, 188, 232, 180, 35, 188, 241, 141, 12, 61, 32, 66, 207, 59, 224, 250, 31, 188, 144, 53, 64, 187, 242, 120, 42, 189, 106, 149, 252, 188, 162, 139, 235, 188, 26, 247, 105, 188, 0, 128, 98, 58, 139, 125, 211, 188, 81, 160, 6, 61, 198, 183, 251, 60, 0, 80, 98, 59, 123, 135, 17, 61, 144, 72, 196, 187, 152, 56, 30, 188, 117, 36, 7, 61, 186, 245, 70, 188, 248, 250, 175, 59, 167, 196, 29, 189, 140, 110, 174, 188, 43, 171, 200, 188, 73, 105, 26, 61, 230, 215, 10, 189, 2, 223, 139, 188, 14, 21, 231, 60, 94, 224, 253, 60, 193, 250, 143, 188, 200, 239, 22, 188, 209, 178, 31, 61, 205, 118, 2, 61, 168, 138, 211, 59, 8, 138, 135, 59, 152, 101, 76, 188, 174, 20, 150, 60, 250, 128, 15, 189, 4, 107, 29, 189, 141, 220, 141, 188, 10, 241, 218, 60, 62, 157, 211, 60, 186, 64, 240, 60, 54, 70, 84, 188, 242, 201, 86, 188, 16, 237, 44, 188, 224, 190, 173, 186, 142, 157, 171, 60, 224, 125, 50, 59, 51, 207, 4, 61, 238, 186, 36, 189, 190, 164, 218, 60, 16, 60, 61, 60, 48, 18, 90, 59, 186, 2, 198, 60, 219, 16, 27, 61, 106, 2, 104, 188, 246, 19, 230, 188, 70, 157, 218, 188, 78, 142, 13, 189, 228, 227, 26, 188, 190, 6, 0, 189, 216, 99, 63, 60, 99, 134, 5, 61, 96, 195, 199, 58, 48, 46, 32, 188, 176, 9, 120, 60, 50, 51, 209, 60, 128, 35, 213, 58, 115, 222, 220, 188, 160, 143, 31, 60, 30, 131, 153, 60, 46, 118, 204, 188, 134, 221, 250, 60, 253, 24, 19, 189, 55, 231, 10, 61, 139, 128, 29, 189, 244, 16, 183, 188, 188, 64, 48, 60, 128, 235, 95, 187, 224, 137, 25, 188, 25, 102, 8, 61, 4, 144, 51, 60, 104, 123, 238, 59, 140, 42, 132, 60, 152, 201, 236, 187, 64, 71, 85, 59, 95, 109, 172, 188, 203, 145, 32, 189, 22, 51, 252, 188, 28, 105, 42, 188, 176, 159, 6, 59, 176, 192, 133, 59, 252, 184, 45, 188, 61, 91, 19, 61, 153, 63, 211, 188, 140, 236, 227, 188, 240, 16, 18, 59, 236, 113, 134, 60, 186, 61, 216, 188, 140, 156, 123, 60, 33, 64, 34, 61, 44, 142, 120, 60, 173, 14, 39, 61, 150, 51, 217, 60, 252, 176, 252, 188, 186, 78, 215, 60, 200, 207, 215, 59, 168, 56, 197, 187, 138, 106, 193, 188, 104, 117, 193, 59, 16, 22, 143, 60, 198, 63, 16, 189, 128, 209, 89, 186, 0, 201, 111, 188, 239, 54, 254, 188, 42, 190, 97, 188, 201, 154, 223, 188, 2, 105, 13, 189, 188, 242, 226, 188, 0, 253, 153, 186, 168, 125, 36, 60, 154, 44, 204, 60, 60, 226, 242, 188, 201, 105, 16, 61, 1, 186, 220, 188, 150, 113, 90, 188, 240, 163, 20, 59, 192, 162, 245, 186, 158, 169, 179, 188, 194, 32, 241, 188, 120, 44, 6, 189, 162, 237, 221, 60, 194, 203, 138, 188, 252, 32, 30, 189, 208, 58, 10, 188, 90, 31, 42, 189, 132, 193, 7, 60, 57, 32, 128, 188, 64, 162, 173, 59, 156, 133, 200, 188, 168, 222, 250, 59, 8, 34, 209, 59, 180, 41, 7, 60, 24, 142, 86, 60, 0, 46, 63, 185, 23, 160, 8, 61, 162, 15, 249, 60, 191, 38, 44, 189, 166, 224, 168, 60, 18, 72, 242, 60, 242, 88, 229, 60, 196, 82, 37, 189, 40, 132, 100, 60, 118, 145, 26, 189, 221, 193, 21, 189, 173, 176, 9, 189, 160, 214, 150, 187, 86, 17, 143, 60, 88, 242, 156, 60, 212, 53, 97, 60, 59, 160, 175, 188, 134, 255, 207, 60, 85, 158, 203, 188, 218, 38, 172, 188, 38, 223, 142, 60, 42, 146, 133, 188, 100, 95, 15, 60, 49, 189, 7, 61, 66, 145, 140, 60, 99, 90, 174, 188, 88, 54, 165, 187, 64, 93, 93, 59, 251, 177, 16, 61, 201, 189, 196, 188, 216, 143, 156, 60, 104, 146, 198, 187, 193, 14, 195, 188, 9, 68, 232, 188, 150, 113, 226, 188, 232, 237, 16, 189, 74, 100, 94, 188, 63, 32, 43, 61, 209, 38, 22, 61, 83, 0, 42, 61, 208, 192, 74, 187, 254, 66, 24, 189, 135, 197, 5, 61, 240, 189, 34, 188, 233, 100, 14, 61, 181, 151, 207, 188, 192, 189, 78, 58, 52, 31, 70, 188, 255, 223, 46, 61, 144, 221, 130, 60, 192, 0, 98, 186, 126, 85, 203, 60, 89, 243, 15, 61, 176, 40, 7, 189, 87, 237, 23, 189, 187, 130, 129, 188, 46, 51, 199, 60, 35, 38, 177, 188, 234, 81, 36, 189, 208, 30, 67, 60, 36, 143, 89, 60, 61, 196, 34, 61, 134, 1, 167, 60, 145, 121, 44, 61, 160, 188, 240, 187, 228, 125, 71, 60, 106, 226, 241, 188, 64, 200, 18, 187, 0, 186, 230, 187, 95, 16, 230, 188, 38, 20, 228, 60, 140, 80, 12, 188, 111, 110, 18, 61, 136, 20, 92, 60, 2, 105, 196, 60, 126, 150, 93, 188, 72, 55, 221, 187, 224, 82, 35, 189, 197, 205, 170, 188, 192, 137, 18, 186, 14, 189, 164, 188, 88, 202, 180, 59, 126, 149, 170, 60, 5, 71, 23, 61, 79, 78, 15, 189, 160, 216, 66, 187, 208, 173, 44, 187, 122, 164, 178, 60, 128, 31, 86, 60, 32, 14, 12, 60, 158, 122, 207, 60, 35, 121, 189, 188, 192, 97, 141, 60, 0, 44, 8, 60, 105, 192, 36, 189, 188, 32, 58, 60, 128, 217, 229, 188, 138, 180, 141, 60, 208, 209, 10, 188, 252, 80, 45, 189, 48, 32, 64, 187, 72, 207, 175, 187, 251, 96, 22, 61, 222, 53, 252, 188, 149, 22, 5, 189, 240, 29, 158, 188, 38, 251, 24, 189, 112, 237, 55, 59, 49, 212, 16, 61, 196, 25, 0, 189, 152, 63, 30, 189, 192, 244, 246, 59, 101, 154, 12, 61, 48, 127, 4, 188, 192, 72, 45, 59, 15, 87, 246, 188, 0, 31, 157, 186, 64, 30, 225, 186, 188, 119, 148, 188, 224, 43, 186, 186, 76, 176, 148, 60, 213, 13, 29, 189, 140, 92, 107, 60, 102, 158, 196, 60, 85, 87, 174, 188, 250, 79, 233, 60, 218, 41, 168, 60, 226, 134, 85, 188, 199, 75, 36, 61, 128, 29, 91, 187, 80, 176, 12, 189, 37, 174, 37, 61, 206, 50, 238, 60, 216, 233, 210, 187, 11, 20, 25, 61, 120, 170, 254, 188, 102, 252, 6, 189, 157, 56, 43, 61, 176, 50, 73, 187, 144, 17, 151, 59, 95, 6, 35, 189, 0, 74, 234, 188, 152, 176, 1, 60, 47, 34, 35, 61, 72, 81, 104, 60, 238, 161, 160, 60, 251, 255, 44, 189, 134, 75, 255, 60, 66, 218, 200, 60, 204, 160, 24, 188, 179, 106, 192, 188, 76, 34, 5, 189, 168, 84, 146, 188, 194, 11, 20, 189, 79, 241, 179, 188, 56, 217, 32, 189, 33, 168, 46, 61, 160, 11, 1, 59, 248, 120, 103, 60, 57, 37, 21, 61, 218, 16, 194, 60, 204, 12, 89, 60, 136, 20, 113, 188, 192, 240, 230, 186, 157, 40, 8, 61, 198, 218, 157, 60, 64, 85, 55, 187, 136, 254, 226, 59, 136, 236, 17, 188, 192, 45, 89, 188, 176, 169, 32, 188, 221, 193, 38, 61, 111, 223, 22, 61, 206, 47, 176, 60, 82, 181, 92, 188, 155, 72, 32, 61, 152, 157, 186, 188, 224, 79, 114, 187, 168, 129, 34, 188, 174, 87, 6, 189, 251, 181, 31, 61, 232, 182, 135, 59, 77, 126, 31, 61, 194, 172, 191, 188, 2, 91, 214, 60, 56, 98, 186, 187, 6, 242, 237, 60, 38, 242, 117, 188, 0, 183, 200, 187, 130, 242, 87, 188, 64, 218, 92, 59, 192, 97, 254, 188, 18, 41, 187, 60, 39, 60, 32, 189, 223, 215, 35, 61, 81, 128, 171, 188, 4, 209, 16, 60, 176, 97, 189, 187, 128, 215, 245, 187, 196, 15, 8, 189, 170, 34, 190, 60, 200, 80, 218, 187, 238, 41, 70, 188, 141, 152, 194, 188, 0, 190, 192, 184, 28, 232, 92, 60, 52, 166, 51, 188, 175, 117, 18, 189, 12, 91, 87, 60, 32, 253, 133, 187, 197, 210, 134, 188, 144, 189, 70, 59, 84, 233, 70, 60, 154, 109, 29, 189, 186, 41, 197, 60, 0, 187, 21, 186, 104, 166, 152, 187, 52, 163, 2, 60, 230, 240, 216, 60, 204, 252, 100, 60, 161, 101, 156, 188, 105, 70, 12, 61, 246, 197, 177, 188, 153, 126, 148, 188, 119, 132, 35, 189, 14, 201, 94, 188, 117, 80, 31, 61, 8, 24, 216, 187, 120, 10, 230, 188, 208, 203, 1, 187, 132, 20, 232, 188, 3, 34, 177, 188, 8, 74, 187, 59, 32, 161, 246, 59, 60, 90, 30, 60, 42, 182, 211, 60, 126, 107, 120, 188, 70, 131, 103, 188, 116, 71, 0, 188, 38, 41, 17, 189, 217, 20, 203, 188, 0, 21, 230, 59, 125, 150, 227, 188, 51, 35, 176, 188, 0, 26, 106, 186, 114, 50, 230, 188, 4, 28, 158, 60, 42, 71, 231, 188, 200, 169, 220, 188, 24, 104, 167, 187, 184, 24, 242, 59, 228, 37, 48, 188, 176, 51, 81, 188, 198, 229, 19, 189, 187, 63, 128, 188, 120, 151, 246, 187, 161, 82, 34, 189, 81, 102, 196, 188, 208, 72, 116, 187, 40, 51, 150, 187, 103, 73, 19, 189, 116, 77, 63, 60, 114, 52, 243, 60, 248, 237, 51, 188, 29, 75, 155, 188, 197, 233, 146, 188, 163, 142, 0, 61, 117, 52, 21, 61, 253, 234, 4, 61, 180, 114, 45, 188, 32, 5, 166, 58, 240, 30, 195, 59, 137, 10, 2, 61, 156, 48, 122, 188, 78, 109, 36, 189, 44, 190, 60, 188, 112, 37, 147, 59, 77, 196, 37, 189, 237, 189, 217, 188, 26, 236, 41, 189, 128, 128, 140, 186, 229, 84, 33, 61, 96, 133, 1, 59, 114, 96, 187, 60, 186, 49, 125, 188, 82, 19, 236, 60, 50, 250, 185, 60, 252, 72, 113, 60, 144, 22, 18, 189, 21, 101, 7, 61, 215, 248, 132, 188, 201, 30, 22, 61, 224, 216, 63, 187, 245, 190, 28, 61, 249, 129, 2, 189, 188, 213, 47, 60, 73, 165, 150, 188, 220, 227, 93, 60, 158, 142, 153, 60, 60, 234, 0, 60, 8, 58, 131, 59, 180, 177, 50, 60, 206, 87, 247, 60, 61, 37, 13, 61, 3, 235, 170, 188, 118, 116, 190, 60, 45, 26, 6, 61, 191, 211, 32, 61, 198, 60, 161, 188, 100, 101, 111, 60, 88, 177, 64, 60, 90, 103, 237, 60, 132, 125, 17, 188, 206, 252, 234, 60, 202, 227, 72, 188, 2, 4, 182, 60, 0, 8, 181, 59, 247, 235, 42, 189, 96, 5, 107, 188, 86, 207, 222, 60, 112, 160, 46, 188, 148, 95, 38, 60, 191, 114, 46, 61, 200, 115, 159, 187, 165, 32, 41, 61, 152, 87, 247, 187, 151, 154, 44, 189, 88, 254, 11, 188, 82, 228, 25, 189, 163, 201, 205, 188, 190, 196, 205, 188, 104, 200, 31, 189, 248, 177, 207, 187, 32, 204, 179, 58, 192, 95, 243, 58, 212, 14, 74, 60, 96, 238, 13, 188, 212, 96, 137, 60, 216, 99, 161, 60, 114, 79, 200, 188, 224, 153, 143, 186, 246, 166, 242, 188, 95, 5, 45, 61, 254, 153, 109, 188, 66, 99, 211, 60, 212, 198, 5, 60, 158, 81, 109, 188, 96, 179, 146, 59, 13, 119, 44, 189, 53, 187, 149, 188, 196, 202, 151, 188, 66, 40, 227, 60, 12, 0, 85, 188, 64, 191, 155, 187, 210, 222, 195, 188, 12, 177, 236, 188, 54, 240, 220, 188, 67, 158, 17, 189, 14, 132, 189, 60, 128, 98, 86, 186, 180, 223, 251, 188, 48, 220, 55, 59, 254, 122, 133, 60, 243, 30, 10, 61, 63, 199, 225, 188, 50, 71, 230, 60, 80, 181, 33, 188, 232, 80, 107, 60, 255, 2, 157, 188, 198, 175, 209, 60, 174, 52, 239, 188, 91, 81, 13, 189, 233, 194, 41, 61, 244, 81, 61, 188, 247, 178, 2, 189, 123, 48, 29, 61, 126, 254, 207, 60, 210, 69, 69, 188, 169, 138, 15, 61, 105, 236, 42, 61, 206, 92, 162, 60, 210, 77, 158, 188, 245, 119, 12, 61, 218, 174, 225, 60, 144, 228, 74, 187, 33, 36, 28, 61, 76, 199, 34, 188, 101, 21, 18, 61, 24, 81, 14, 60, 96, 205, 151, 60, 240, 72, 201, 187, 96, 166, 35, 189, 21, 128, 135, 188, 168, 62, 75, 188, 224, 172, 99, 60, 140, 193, 46, 189, 150, 159, 106, 188, 54, 20, 228, 60, 118, 184, 198, 60, 0, 235, 169, 188, 24, 94, 221, 187, 156, 4, 5, 188, 222, 100, 72, 188, 32, 147, 180, 187, 218, 18, 157, 60, 24, 193, 166, 188, 172, 122, 145, 60, 98, 165, 79, 188, 148, 47, 74, 60, 164, 46, 17, 188, 47, 10, 245, 188, 192, 77, 227, 186, 192, 136, 85, 59, 176, 20, 33, 187, 248, 190, 155, 60, 255, 145, 45, 189, 86, 132, 250, 60, 56, 41, 253, 188, 39, 237, 202, 188, 211, 203, 41, 189, 7, 78, 18, 61, 176, 248, 133, 59, 96, 86, 50, 59, 22, 28, 246, 60, 68, 215, 3, 60, 224, 167, 202, 186, 219, 57, 39, 61, 140, 123, 234, 188, 136, 166, 137, 60, 160, 244, 176, 187, 4, 255, 80, 60, 178, 45, 110, 188, 158, 210, 213, 188, 32, 115, 5, 189, 212, 165, 93, 60, 93, 191, 166, 188, 166, 47, 199, 60, 190, 127, 33, 189, 113, 247, 163, 188, 207, 38, 38, 189, 35, 57, 16, 61, 248, 63, 199, 59, 0, 80, 116, 60, 101, 106, 255, 188, 146, 41, 204, 60, 64, 214, 129, 187, 44, 65, 104, 60, 136, 220, 136, 187, 185, 206, 24, 61, 112, 123, 5, 59, 26, 143, 208, 60, 193, 52, 45, 61, 32, 156, 77, 60, 121, 35, 35, 61, 192, 19, 91, 186, 1, 6, 214, 188, 22, 39, 225, 60, 150, 32, 132, 60, 196, 94, 46, 188, 136, 104, 221, 187, 0, 52, 112, 60, 190, 40, 133, 60, 228, 223, 45, 188, 2, 112, 218, 60, 240, 228, 101, 59, 72, 187, 166, 187, 17, 108, 182, 188, 120, 45, 141, 60, 228, 187, 157, 188, 144, 250, 133, 187, 188, 176, 25, 60, 6, 63, 105, 188, 144, 32, 22, 60, 43, 156, 18, 61, 108, 119, 12, 189, 82, 181, 235, 60, 193, 6, 250, 188, 29, 91, 172, 188, 22, 25, 184, 188, 96, 150, 195, 59, 225, 123, 134, 188, 24, 14, 51, 60, 150, 237, 244, 60, 224, 45, 79, 59, 200, 133, 24, 60, 28, 230, 159, 60, 81, 228, 217, 188, 16, 153, 220, 188, 16, 86, 229, 59, 234, 1, 208, 60, 111, 70, 44, 189, 26, 208, 32, 189, 175, 193, 22, 189, 17, 55, 161, 188, 201, 169, 149, 188, 152, 72, 94, 60, 153, 188, 35, 61, 181, 221, 169, 188, 126, 209, 210, 60, 232, 237, 166, 187, 104, 98, 54, 188, 72, 238, 202, 59, 205, 103, 31, 61, 42, 127, 181, 188, 83, 141, 35, 189, 128, 113, 75, 186, 160, 248, 97, 59, 102, 140, 197, 60, 136, 174, 12, 189, 95, 188, 23, 189, 39, 42, 31, 61, 80, 146, 69, 59, 0, 155, 58, 58, 190, 238, 12, 189, 135, 140, 5, 61, 195, 83, 186, 188, 136, 173, 20, 188, 52, 130, 50, 188, 128, 31, 39, 189, 84, 137, 25, 189, 165, 3, 44, 61, 169, 68, 17, 61, 104, 68, 20, 60, 131, 204, 36, 61, 39, 22, 223, 188, 24, 173, 213, 59, 43, 66, 20, 189, 10, 205, 148, 60, 222, 78, 217, 60, 133, 11, 4, 61, 10, 54, 16, 189, 110, 190, 11, 189, 188, 214, 89, 60, 208, 94, 43, 189, 241, 41, 27, 189, 0, 192, 6, 187, 80, 23, 197, 59, 170, 159, 36, 189, 64, 84, 26, 189, 36, 14, 42, 60, 70, 185, 186, 188, 139, 60, 227, 188, 112, 113, 228, 59, 26, 206, 15, 189, 76, 172, 41, 189, 224, 210, 234, 58, 56, 118, 148, 187, 80, 134, 42, 59, 138, 138, 207, 188, 199, 6, 141, 188, 1, 175, 36, 61, 71, 0, 252, 188, 142, 87, 254, 188, 128, 112, 170, 187, 208, 71, 171, 59, 250, 220, 223, 60, 0, 69, 217, 58, 60, 70, 238, 188, 104, 72, 46, 60, 46, 71, 183, 60, 206, 93, 239, 188, 191, 133, 2, 61, 10, 184, 161, 60, 13, 166, 21, 61, 72, 32, 110, 60, 187, 36, 243, 188, 0, 209, 89, 58, 74, 33, 165, 60, 128, 212, 214, 186, 80, 45, 210, 188, 192, 74, 167, 188, 237, 96, 18, 61, 213, 47, 26, 61, 139, 147, 9, 61, 44, 88, 137, 188, 150, 31, 33, 189, 131, 207, 34, 189, 152, 10, 170, 188, 20, 254, 60, 60, 85, 37, 34, 61, 40, 218, 151, 188, 218, 7, 243, 188, 49, 99, 44, 61, 147, 191, 15, 61, 180, 60, 25, 60, 190, 211, 223, 60, 76, 149, 113, 60, 142, 141, 185, 60, 0, 91, 146, 57, 216, 108, 177, 59, 121, 191, 194, 188, 152, 4, 212, 59, 176, 69, 76, 59, 0, 112, 20, 186, 98, 55, 155, 60, 18, 41, 186, 60, 24, 141, 193, 59, 89, 158, 46, 61, 0, 33, 43, 57, 20, 241, 134, 60, 72, 189, 228, 187, 240, 43, 6, 189, 253, 164, 42, 189, 187, 74, 165, 188, 228, 207, 94, 188, 190, 183, 194, 60, 157, 123, 21, 189, 180, 129, 13, 189, 50, 118, 127, 188, 220, 87, 12, 60, 124, 194, 10, 189, 96, 134, 53, 59, 176, 203, 46, 59, 2, 198, 209, 60, 38, 46, 197, 60, 216, 136, 50, 60, 75, 153, 32, 61, 81, 150, 33, 61, 27, 175, 20, 189, 117, 161, 253, 188, 66, 91, 174, 60, 210, 236, 252, 60, 108, 84, 99, 60, 130, 205, 130, 60, 188, 41, 0, 188, 200, 194, 176, 59, 160, 4, 255, 188, 64, 125, 9, 187, 82, 150, 11, 189, 33, 231, 4, 61, 37, 199, 26, 61, 144, 247, 197, 187, 94, 66, 195, 60, 124, 199, 136, 60, 80, 126, 36, 59, 208, 168, 30, 59, 161, 138, 44, 61, 0, 172, 215, 184, 48, 168, 117, 188, 32, 126, 200, 59, 245, 14, 43, 61, 211, 219, 163, 188, 196, 56, 43, 189, 160, 131, 165, 59, 224, 149, 171, 58, 186, 159, 27, 189, 25, 122, 28, 189, 12, 69, 28, 188, 0, 41, 135, 60, 160, 148, 44, 189, 191, 239, 40, 61, 177, 4, 43, 61, 98, 12, 197, 188, 97, 139, 34, 189, 128, 235, 1, 187, 250, 227, 188, 60, 247, 189, 25, 61, 192, 105, 197, 186, 28, 14, 147, 188, 169, 178, 189, 188, 128, 71, 134, 187, 44, 214, 38, 188, 112, 4, 82, 59, 77, 152, 20, 189, 121, 131, 44, 189, 200, 200, 128, 187, 112, 192, 220, 59, 45, 245, 3, 61, 199, 223, 43, 61, 46, 66, 171, 188, 107, 69, 178, 188, 105, 74, 32, 61, 147, 76, 215, 188, 185, 20, 247, 188, 72, 27, 200, 187, 72, 134, 253, 59, 32, 64, 210, 58, 90, 80, 181, 188, 222, 112, 201, 188, 104, 178, 147, 59, 44, 8, 105, 188, 226, 210, 220, 188, 30, 219, 155, 60, 112, 109, 138, 59, 110, 116, 137, 188, 164, 210, 146, 60, 102, 251, 145, 60, 128, 79, 238, 58, 80, 80, 161, 60, 152, 136, 113, 188, 99, 242, 45, 61, 238, 122, 211, 60, 93, 57, 29, 61, 98, 97, 195, 60, 8, 35, 148, 59, 149, 252, 36, 189, 144, 154, 67, 60, 21, 248, 155, 188, 212, 175, 206, 188, 72, 238, 83, 60, 142, 2, 15, 189, 154, 200, 218, 188, 72, 212, 95, 188, 211, 18, 154, 188, 173, 235, 4, 61, 196, 133, 139, 60, 186, 32, 185, 60, 147, 227, 182, 188, 179, 167, 148, 188, 96, 152, 170, 188, 42, 49, 242, 60, 243, 237, 43, 61, 182, 76, 171, 60, 128, 156, 70, 60, 242, 102, 137, 60, 80, 247, 41, 60, 97, 213, 42, 61, 143, 97, 159, 188, 71, 182, 40, 61, 32, 29, 249, 188, 41, 87, 14, 61, 0, 7, 34, 188, 88, 199, 77, 60, 178, 228, 248, 60, 243, 77, 198, 188, 106, 66, 207, 60, 30, 126, 35, 189, 8, 48, 164, 187, 216, 81, 143, 60, 146, 192, 14, 189, 124, 92, 178, 188, 164, 32, 35, 189, 24, 252, 149, 187, 160, 44, 99, 59, 230, 156, 187, 60, 235, 200, 15, 61, 122, 118, 245, 60, 181, 137, 213, 188, 0, 248, 153, 184, 68, 140, 149, 60, 128, 150, 194, 186, 65, 188, 31, 189, 148, 22, 53, 188, 150, 186, 167, 60, 48, 161, 144, 187, 56, 202, 20, 188, 112, 134, 140, 60, 146, 65, 170, 60, 93, 108, 22, 189, 189, 252, 12, 61, 3, 140, 181, 188, 238, 18, 138, 188, 38, 200, 249, 60, 122, 206, 251, 60, 98, 188, 195, 60, 214, 72, 186, 60, 122, 86, 242, 60, 192, 207, 235, 187, 104, 93, 70, 60, 225, 31, 231, 188, 237, 44, 30, 61, 161, 45, 25, 61, 96, 25, 252, 186, 182, 190, 159, 188, 43, 138, 17, 61, 195, 220, 24, 61, 51, 202, 6, 189, 20, 41, 46, 60, 138, 155, 31, 189, 74, 16, 198, 60, 179, 210, 28, 61, 153, 198, 36, 189, 207, 22, 9, 189, 8, 0, 255, 59, 13, 59, 38, 61, 114, 109, 33, 189, 74, 56, 177, 60, 4, 212, 190, 188, 98, 167, 200, 188, 122, 216, 245, 60, 96, 142, 32, 60, 166, 135, 15, 189, 84, 131, 65, 60, 232, 21, 230, 188, 200, 106, 130, 187, 72, 101, 81, 60, 32, 217, 110, 188, 240, 29, 68, 60, 160, 100, 154, 58, 52, 229, 36, 60, 24, 102, 233, 188, 26, 42, 186, 188, 231, 69, 35, 61, 95, 79, 35, 61, 230, 175, 231, 60, 17, 182, 158, 188, 198, 138, 217, 188, 120, 197, 77, 60, 111, 174, 140, 188, 16, 39, 92, 59, 77, 85, 45, 61, 187, 77, 44, 61, 201, 181, 0, 189, 115, 