#pragma once

#include <cstdint>

const uint8_t layer_4[] = {
28, 0, 0, 0, 84, 70, 76, 51, 20, 0, 32, 0, 28, 0, 24, 0, 20, 0, 16, 0, 12, 0, 0, 0, 8, 0, 4, 0, 20, 0, 0, 0, 28, 0, 0, 0, 152, 0, 0, 0, 240, 0, 0, 0, 224, 154, 0, 0, 240, 154, 0, 0, 0, 162, 0, 0, 3, 0, 0, 0, 1, 0, 0, 0, 16, 0, 0, 0, 0, 0, 10, 0, 16, 0, 12, 0, 8, 0, 4, 0, 10, 0, 0, 0, 12, 0, 0, 0, 28, 0, 0, 0, 60, 0, 0, 0, 15, 0, 0, 0, 115, 101, 114, 118, 105, 110, 103, 95, 100, 101, 102, 97, 117, 108, 116, 0, 1, 0, 0, 0, 4, 0, 0, 0, 144, 255, 255, 255, 7, 0, 0, 0, 4, 0, 0, 0, 8, 0, 0, 0, 111, 117, 116, 112, 117, 116, 95, 48, 0, 0, 0, 0, 1, 0, 0, 0, 4, 0, 0, 0, 22, 101, 255, 255, 4, 0, 0, 0, 15, 0, 0, 0, 107, 101, 114, 97, 115, 95, 116, 101, 110, 115, 111, 114, 95, 51, 49, 0, 2, 0, 0, 0, 52, 0, 0, 0, 4, 0, 0, 0, 220, 255, 255, 255, 10, 0, 0, 0, 4, 0, 0, 0, 19, 0, 0, 0, 67, 79, 78, 86, 69, 82, 83, 73, 79, 78, 95, 77, 69, 84, 65, 68, 65, 84, 65, 0, 8, 0, 12, 0, 8, 0, 4, 0, 8, 0, 0, 0, 9, 0, 0, 0, 4, 0, 0, 0, 19, 0, 0, 0, 109, 105, 110, 95, 114, 117, 110, 116, 105, 109, 101, 95, 118, 101, 114, 115, 105, 111, 110, 0, 11, 0, 0, 0, 236, 153, 0, 0, 228, 153, 0, 0, 212, 148, 0, 0, 196, 1, 0, 0, 180, 0, 0, 0, 172, 0, 0, 0, 164, 0, 0, 0, 156, 0, 0, 0, 148, 0, 0, 0, 116, 0, 0, 0, 4, 0, 0, 0, 190, 101, 255, 255, 4, 0, 0, 0, 96, 0, 0, 0, 16, 0, 0, 0, 0, 0, 0, 0, 8, 0, 14, 0, 8, 0, 4, 0, 8, 0, 0, 0, 16, 0, 0, 0, 36, 0, 0, 0, 0, 0, 6, 0, 8, 0, 4, 0, 6, 0, 0, 0, 4, 0, 0, 0, 0, 0, 0, 0, 12, 0, 24, 0, 20, 0, 16, 0, 12, 0, 4, 0, 12, 0, 0, 0, 129, 83, 28, 171, 111, 180, 216, 83, 2, 0, 0, 0, 2, 0, 0, 0, 4, 0, 0, 0, 6, 0, 0, 0, 50, 46, 49, 55, 46, 48, 0, 0, 42, 102, 255, 255, 4, 0, 0, 0, 16, 0, 0, 0, 50, 46, 48, 46, 48, 0, 0, 0, 0, 0, 0, 0, 0, 0, 0, 0, 224, 95, 255, 255, 228, 95, 255, 255, 232, 95, 255, 255, 236, 95, 255, 255, 86, 102, 255, 255, 4, 0, 0, 0, 0, 1, 0, 0, 0, 0, 0, 0, 0, 0, 0, 0, 0, 0, 0, 0, 0, 0, 0, 0, 0, 0, 0, 0, 0, 0, 0, 0, 0, 0, 0, 0, 0, 0, 0, 0, 0, 0, 0, 0, 0, 0, 0, 0, 0, 0, 0, 0, 0, 0, 0, 0, 0, 0, 0, 0, 0, 0, 0, 0, 0, 0, 0, 0, 0, 0, 0, 0, 0, 0, 0, 0, 0, 0, 0, 0, 0, 0, 0, 0, 0, 0, 0, 0, 0, 0, 0, 0, 0, 0, 0, 0, 0, 0, 0, 0, 0, 0, 0, 0, 0, 0, 0, 0, 0, 0, 0, 0, 0, 0, 0, 0, 0, 0, 0, 0, 0, 0, 0, 0, 0, 0, 0, 0, 0, 0, 0, 0, 0, 0, 0, 0, 0, 0, 0, 0, 0, 0, 0, 0, 0, 0, 0, 0, 0, 0, 0, 0, 0, 0, 0, 0, 0, 0, 0, 0, 0, 0, 0, 0, 0, 0, 0, 0, 0, 0, 0, 0, 0, 0, 0, 0, 0, 0, 0, 0, 0, 0, 0, 0, 0, 0, 0, 0, 0, 0, 0, 0, 0, 0, 0, 0, 0, 0, 0, 0, 0, 0, 0, 0, 0, 0, 0, 0, 0, 0, 0, 0, 0, 0, 0, 0, 0, 0, 0, 0, 0, 0, 0, 0, 0, 0, 0, 0, 0, 0, 0, 0, 0, 0, 0, 0, 0, 0, 0, 0, 0, 0, 0, 0, 0, 0, 0, 0, 0, 0, 0, 0, 0, 0, 0, 0, 0, 0, 0, 0, 0, 0, 0, 0, 98, 103, 255, 255, 4, 0, 0, 0, 0, 147, 0, 0, 30, 203, 37, 189, 27, 198, 1, 189, 65, 84, 42, 189, 215, 222, 33, 61, 237, 153, 224, 188, 66, 43, 60, 188, 122, 189, 35, 61, 79, 238, 105, 59, 225, 178, 146, 59, 223, 22, 131, 60, 81, 215, 195, 60, 238, 137, 134, 60, 102, 241, 43, 60, 187, 117, 135, 60, 204, 231, 230, 60, 108, 105, 249, 188, 74, 79, 18, 188, 25, 74, 78, 60, 4, 19, 4, 189, 38, 145, 33, 188, 24, 211, 8, 61, 179, 58, 30, 188, 247, 31, 87, 186, 169, 181, 187, 59, 140, 37, 150, 60, 106, 143, 15, 189, 93, 189, 173, 60, 94, 157, 120, 60, 110, 147, 10, 189, 140, 33, 173, 188, 175, 77, 205, 60, 118, 178, 27, 188, 98, 14, 146, 188, 240, 156, 183, 59, 235, 94, 17, 189, 25, 142, 10, 189, 30, 228, 72, 60, 97, 136, 72, 60, 90, 116, 111, 60, 97, 74, 25, 189, 138, 244, 178, 60, 147, 82, 225, 188, 166, 78, 222, 60, 33, 186, 62, 188, 150, 54, 106, 59, 60, 38, 239, 59, 96, 22, 42, 189, 52, 238, 27, 61, 25, 50, 24, 189, 22, 177, 135, 60, 224, 89, 176, 60, 172, 64, 227, 188, 131, 76, 130, 60, 248, 245, 199, 59, 47, 230, 44, 59, 22, 25, 177, 188, 92, 214, 33, 61, 54, 243, 147, 188, 251, 236, 144, 60, 142, 4, 101, 188, 203, 171, 6, 189, 120, 106, 42, 60, 188, 100, 27, 187, 249, 45, 75, 188, 117, 81, 2, 61, 97, 73, 73, 60, 212, 135, 0, 61, 241, 70, 37, 189, 43, 77, 129, 59, 137, 112, 17, 61, 97, 19, 223, 188, 50, 225, 169, 59, 189, 41, 21, 61, 251, 76, 11, 61, 114, 138, 171, 188, 209, 122, 28, 60, 203, 241, 245, 60, 165, 74, 24, 189, 79, 209, 209, 60, 212, 94, 35, 61, 92, 121, 14, 189, 167, 31, 249, 188, 219, 206, 16, 188, 183, 228, 68, 188, 145, 16, 150, 188, 135, 253, 149, 60, 120, 186, 248, 188, 88, 5, 142, 60, 241, 151, 182, 187, 219, 235, 2, 189, 98, 11, 162, 186, 95, 13, 205, 60, 43, 14, 184, 60, 69, 227, 13, 189, 95, 116, 188, 188, 49, 14, 142, 58, 49, 0, 69, 60, 141, 187, 33, 189, 96, 192, 158, 188, 148, 87, 44, 61, 172, 166, 207, 187, 35, 35, 230, 187, 33, 203, 153, 59, 129, 176, 5, 189, 82, 212, 181, 59, 231, 167, 224, 187, 140, 249, 243, 188, 129, 74, 14, 189, 196, 102, 37, 59, 135, 18, 6, 187, 40, 96, 34, 59, 16, 212, 190, 188, 28, 74, 15, 189, 248, 56, 164, 188, 224, 167, 162, 60, 114, 76, 140, 188, 31, 254, 175, 60, 118, 5, 93, 58, 3, 151, 3, 61, 10, 62, 0, 60, 58, 169, 102, 60, 211, 98, 191, 60, 218, 68, 40, 188, 23, 24, 34, 189, 128, 166, 241, 188, 69, 179, 203, 59, 218, 83, 245, 58, 73, 92, 9, 189, 83, 57, 14, 61, 231, 247, 39, 61, 130, 11, 173, 59, 201, 116, 78, 188, 0, 20, 206, 58, 28, 213, 210, 59, 149, 134, 67, 60, 225, 251, 38, 60, 96, 236, 27, 61, 40, 242, 45, 60, 146, 170, 145, 188, 38, 195, 41, 60, 133, 146, 157, 187, 9, 11, 224, 60, 19, 17, 1, 188, 16, 211, 169, 188, 148, 149, 146, 188, 102, 177, 148, 188, 88, 160, 18, 60, 192, 147, 39, 189, 205, 129, 92, 188, 34, 28, 48, 188, 157, 245, 19, 189, 92, 57, 19, 60, 248, 74, 105, 60, 253, 167, 227, 186, 35, 183, 132, 60, 97, 218, 67, 188, 77, 170, 51, 60, 255, 237, 129, 59, 224, 65, 250, 59, 157, 251, 2, 61, 205, 18, 103, 60, 65, 86, 253, 60, 207, 60, 150, 188, 110, 82, 169, 188, 64, 226, 79, 60, 204, 97, 255, 188, 139, 172, 200, 188, 181, 155, 135, 59, 15, 25, 208, 60, 69, 77, 9, 189, 111, 68, 235, 188, 118, 106, 163, 188, 119, 12, 166, 59, 68, 2, 161, 188, 16, 89, 215, 58, 183, 193, 171, 188, 45, 159, 74, 60, 102, 141, 22, 61, 56, 252, 8, 61, 136, 182, 79, 188, 73, 62, 241, 60, 181, 114, 38, 61, 71, 95, 121, 188, 217, 197, 35, 189, 209, 156, 32, 189, 128, 52, 25, 189, 96, 245, 222, 60, 240, 118, 155, 60, 143, 147, 14, 61, 17, 253, 4, 61, 55, 156, 153, 188, 63, 57, 220, 188, 62, 243, 194, 60, 43, 19, 38, 61, 57, 154, 45, 61, 132, 44, 58, 60, 218, 137, 222, 188, 115, 213, 128, 187, 101, 126, 157, 188, 88, 239, 35, 60, 180, 234, 11, 61, 238, 136, 140, 188, 144, 137, 12, 61, 128, 42, 121, 60, 89, 13, 164, 59, 122, 32, 25, 61, 96, 69, 38, 189, 29, 170, 19, 189, 249, 76, 16, 61, 143, 85, 33, 61, 20, 78, 224, 188, 25, 123, 198, 185, 55, 147, 32, 188, 204, 208, 35, 189, 220, 194, 194, 60, 72, 120, 32, 189, 11, 64, 6, 189, 149, 248, 80, 60, 238, 166, 24, 189, 149, 222, 218, 188, 176, 199, 225, 60, 129, 89, 44, 59, 169, 123, 252, 60, 136, 214, 25, 61, 152, 81, 52, 60, 225, 162, 52, 59, 139, 249, 124, 60, 128, 145, 247, 187, 79, 130, 17, 61, 175, 118, 132, 188, 165, 63, 22, 189, 169, 197, 206, 187, 128, 159, 35, 61, 204, 38, 208, 187, 82, 169, 46, 61, 16, 31, 165, 60, 70, 244, 38, 60, 87, 230, 172, 59, 77, 192, 149, 60, 112, 160, 160, 188, 55, 117, 6, 61, 147, 231, 169, 60, 171, 125, 249, 60, 158, 3, 253, 57, 185, 113, 175, 60, 54, 13, 178, 59, 238, 233, 191, 60, 90, 24, 42, 61, 235, 189, 236, 187, 23, 52, 204, 188, 254, 165, 71, 188, 10, 156, 125, 187, 103, 235, 32, 184, 211, 170, 221, 60, 63, 188, 192, 188, 76, 188, 204, 185, 95, 40, 96, 60, 234, 100, 242, 59, 135, 37, 10, 189, 134, 17, 4, 189, 236, 27, 207, 60, 148, 93, 11, 61, 58, 22, 90, 188, 179, 173, 90, 60, 113, 14, 203, 60, 202, 38, 4, 189, 180, 143, 37, 61, 61, 191, 181, 57, 16, 255, 33, 189, 98, 93, 68, 60, 102, 156, 47, 187, 42, 140, 45, 189, 132, 112, 19, 61, 222, 31, 96, 188, 135, 215, 43, 189, 181, 165, 0, 188, 87, 202, 174, 60, 43, 225, 204, 188, 213, 63, 178, 60, 96, 88, 61, 188, 68, 149, 162, 188, 159, 70, 26, 189, 152, 57, 139, 60, 151, 73, 0, 61, 127, 120, 119, 60, 206, 114, 44, 61, 77, 135, 93, 60, 22, 223, 203, 60, 238, 141, 22, 61, 101, 180, 242, 188, 126, 111, 27, 61, 87, 196, 31, 189, 141, 228, 154, 59, 98, 133, 174, 59, 152, 247, 186, 188, 211, 128, 141, 187, 87, 92, 5, 61, 117, 96, 34, 61, 83, 51, 37, 188, 27, 198, 1, 61, 6, 237, 29, 61, 63, 144, 16, 186, 159, 250, 5, 61, 205, 73, 218, 188, 31, 220, 35, 189, 171, 11, 127, 187, 28, 169, 228, 186, 154, 11, 238, 60, 150, 87, 238, 188, 95, 89, 30, 60, 25, 153, 255, 187, 247, 48, 212, 58, 168, 152, 14, 188, 33, 69, 238, 188, 195, 122, 205, 59, 125, 194, 84, 60, 109, 122, 21, 189, 193, 116, 17, 189, 169, 217, 38, 60, 94, 13, 40, 189, 103, 11, 234, 188, 127, 39, 133, 60, 176, 62, 178, 187, 41, 83, 76, 187, 114, 95, 235, 60, 45, 10, 177, 60, 105, 141, 219, 188, 169, 72, 240, 60, 218, 117, 199, 60, 229, 131, 133, 60, 63, 35, 152, 187, 241, 229, 20, 185, 217, 179, 39, 189, 200, 179, 153, 188, 151, 233, 17, 60, 111, 195, 43, 61, 141, 66, 139, 187, 29, 40, 230, 60, 155, 69, 32, 61, 239, 237, 236, 188, 241, 182, 7, 60, 13, 48, 186, 60, 14, 235, 227, 188, 136, 20, 213, 60, 145, 16, 25, 189, 236, 114, 130, 60, 203, 152, 1, 61, 250, 185, 178, 60, 221, 90, 250, 188, 137, 201, 215, 187, 234, 40, 238, 60, 182, 243, 39, 61, 138, 126, 89, 60, 90, 110, 243, 60, 56, 209, 36, 59, 212, 128, 132, 188, 99, 33, 34, 189, 121, 166, 148, 186, 98, 87, 225, 188, 92, 162, 44, 61, 192, 189, 255, 188, 194, 224, 171, 188, 6, 127, 158, 188, 57, 13, 39, 61, 227, 122, 195, 187, 101, 97, 172, 188, 4, 28, 152, 60, 112, 172, 88, 60, 102, 96, 99, 187, 120, 202, 30, 61, 76, 132, 208, 188, 159, 94, 13, 61, 182, 6, 4, 60, 231, 181, 0, 59, 200, 222, 18, 60, 214, 180, 142, 60, 197, 235, 160, 188, 99, 251, 33, 61, 152, 91, 11, 189, 173, 157, 148, 188, 41, 250, 44, 61, 150, 39, 234, 60, 171, 67, 183, 188, 78, 135, 223, 60, 197, 120, 205, 60, 242, 76, 232, 60, 61, 122, 191, 188, 208, 15, 206, 59, 183, 9, 197, 188, 39, 133, 160, 188, 138, 136, 66, 59, 130, 109, 3, 189, 158, 146, 197, 59, 175, 112, 20, 61, 89, 227, 25, 61, 103, 6, 141, 188, 189, 211, 86, 60, 25, 247, 124, 188, 51, 139, 35, 189, 69, 57, 7, 189, 105, 38, 188, 60, 1, 225, 44, 189, 42, 60, 78, 188, 46, 244, 244, 59, 173, 24, 80, 60, 1, 228, 227, 188, 83, 215, 124, 187, 233, 116, 202, 188, 119, 144, 79, 60, 58, 221, 138, 57, 212, 15, 222, 59, 184, 206, 19, 189, 230, 32, 196, 56, 171, 3, 43, 189, 88, 53, 41, 57, 230, 31, 194, 188, 131, 255, 4, 61, 83, 45, 31, 189, 251, 9, 169, 188, 151, 59, 31, 189, 59, 207, 147, 60, 97, 229, 83, 186, 203, 11, 31, 189, 58, 251, 214, 60, 158, 31, 83, 60, 39, 244, 37, 61, 147, 178, 212, 188, 102, 163, 174, 59, 232, 193, 221, 188, 231, 240, 211, 188, 191, 102, 196, 60, 180, 208, 139, 188, 229, 12, 179, 187, 164, 17, 12, 189, 249, 78, 45, 60, 61, 115, 180, 60, 176, 129, 70, 188, 209, 114, 8, 60, 23, 238, 115, 188, 157, 106, 82, 60, 30, 144, 8, 61, 151, 52, 38, 189, 159, 3, 92, 188, 8, 115, 192, 60, 7, 0, 175, 188, 107, 121, 195, 187, 223, 168, 231, 60, 252, 74, 32, 58, 71, 9, 146, 188, 94, 139, 164, 60, 72, 234, 99, 188, 245, 117, 175, 60, 247, 43, 19, 189, 56, 88, 171, 60, 140, 178, 43, 189, 127, 113, 177, 188, 223, 225, 107, 60, 216, 161, 171, 187, 196, 166, 79, 188, 12, 20, 42, 61, 10, 197, 249, 60, 185, 147, 154, 188, 120, 144, 41, 60, 70, 146, 193, 188, 100, 206, 193, 60, 33, 112, 26, 61, 16, 119, 44, 61, 9, 190, 6, 188, 155, 237, 28, 61, 21, 84, 224, 188, 90, 16, 195, 60, 199, 170, 106, 187, 50, 61, 20, 61, 52, 124, 50, 60, 156, 85, 44, 61, 37, 78, 9, 188, 15, 6, 0, 189, 23, 224, 76, 60, 249, 191, 220, 188, 210, 214, 160, 187, 52, 117, 23, 189, 251, 11, 172, 188, 125, 149, 251, 59, 239, 236, 41, 61, 160, 252, 36, 189, 19, 154, 245, 60, 211, 189, 243, 60, 227, 141, 199, 60, 37, 244, 30, 61, 102, 133, 244, 188, 172, 221, 201, 60, 53, 187, 64, 187, 111, 243, 190, 58, 48, 111, 20, 189, 71, 32, 141, 188, 230, 33, 30, 61, 18, 199, 45, 59, 216, 109, 253, 188, 211, 19, 1, 188, 88, 207, 219, 60, 25, 25, 178, 188, 125, 206, 165, 60, 238, 159, 133, 60, 192, 167, 246, 188, 180, 114, 151, 60, 186, 95, 219, 60, 88, 182, 217, 60, 112, 46, 255, 188, 204, 176, 24, 61, 165, 55, 32, 61, 101, 133, 138, 58, 220, 228, 198, 188, 62, 100, 29, 61, 166, 226, 24, 61, 171, 26, 17, 189, 34, 39, 13, 189, 10, 65, 188, 60, 223, 237, 231, 60, 70, 41, 44, 61, 96, 225, 2, 59, 228, 150, 24, 188, 129, 195, 31, 60, 24, 226, 168, 188, 238, 54, 93, 188, 210, 200, 15, 61, 96, 242, 220, 59, 181, 206, 17, 189, 105, 163, 232, 188, 172, 106, 110, 188, 215, 7, 35, 61, 54, 235, 183, 59, 126, 241, 208, 188, 34, 1, 138, 60, 189, 53, 173, 188, 108, 36, 23, 188, 159, 89, 172, 188, 109, 213, 1, 61, 104, 247, 41, 189, 12, 89, 243, 60, 193, 169, 145, 60, 213, 184, 179, 188, 41, 38, 5, 189, 141, 32, 40, 189, 11, 196, 136, 60, 7, 45, 140, 187, 123, 226, 180, 60, 130, 171, 41, 189, 152, 94, 67, 188, 81, 158, 20, 189, 245, 51, 235, 187, 127, 116, 110, 188, 129, 79, 20, 189, 173, 192, 86, 188, 12, 16, 37, 189, 229, 41, 196, 188, 85, 212, 250, 59, 43, 0, 47, 189, 8, 204, 144, 59, 5, 223, 168, 60, 239, 160, 97, 59, 177, 169, 224, 188, 43, 43, 36, 189, 20, 5, 234, 188, 156, 177, 243, 188, 14, 18, 8, 189, 93, 87, 136, 188, 13, 187, 33, 187, 155, 26, 201, 187, 2, 211, 161, 59, 131, 100, 4, 189, 153, 197, 22, 189, 27, 160, 197, 60, 89, 155, 8, 61, 71, 225, 243, 60, 20, 250, 28, 189, 203, 187, 215, 187, 161, 21, 123, 60, 151, 193, 39, 188, 27, 64, 238, 60, 225, 167, 46, 188, 184, 60, 50, 60, 93, 36, 159, 60, 41, 194, 153, 188, 76, 109, 83, 60, 144, 189, 19, 189, 79, 58, 208, 188, 97, 121, 200, 60, 161, 141, 84, 188, 235, 240, 16, 60, 48, 229, 2, 61, 146, 184, 235, 188, 158, 237, 255, 187, 191, 35, 207, 60, 70, 118, 27, 189, 12, 230, 137, 60, 28, 220, 177, 186, 179, 203, 150, 57, 160, 76, 207, 59, 51, 148, 3, 189, 104, 153, 181, 60, 205, 196, 43, 61, 4, 171, 3, 189, 128, 251, 177, 187, 179, 88, 199, 188, 155, 47, 142, 60, 71, 84, 227, 186, 52, 241, 182, 60, 205, 106, 247, 59, 109, 206, 50, 59, 64, 39, 33, 187, 11, 114, 132, 188, 206, 60, 8, 189, 139, 140, 16, 189, 158, 15, 216, 60, 157, 182, 185, 60, 155, 133, 216, 60, 12, 130, 155, 188, 245, 233, 247, 187, 233, 184, 157, 188, 215, 113, 189, 60, 29, 55, 4, 189, 31, 4, 39, 60, 7, 29, 166, 188, 135, 69, 25, 61, 126, 138, 24, 60, 166, 70, 16, 61, 9, 169, 179, 187, 101, 195, 75, 188, 110, 41, 183, 58, 125, 103, 62, 60, 244, 62, 4, 189, 150, 186, 214, 188, 132, 165, 1, 188, 15, 55, 225, 60, 193, 87, 169, 60, 75, 145, 129, 60, 103, 88, 247, 59, 39, 188, 145, 188, 232, 105, 134, 60, 51, 133, 28, 60, 187, 74, 252, 60, 216, 39, 134, 60, 62, 72, 17, 189, 97, 190, 48, 58, 90, 33, 31, 188, 146, 16, 224, 188, 221, 33, 130, 188, 197, 21, 25, 61, 58, 40, 24, 189, 197, 22, 215, 188, 160, 122, 188, 186, 247, 63, 155, 188, 67, 17, 150, 187, 234, 178, 148, 60, 25, 46, 137, 188, 148, 76, 24, 189, 234, 190, 27, 189, 114, 207, 10, 189, 103, 188, 29, 61, 89, 148, 1, 61, 142, 102, 241, 188, 251, 228, 147, 188, 104, 186, 227, 60, 70, 189, 167, 188, 98, 146, 199, 188, 21, 26, 24, 61, 3, 93, 36, 61, 101, 156, 23, 61, 246, 53, 5, 61, 246, 63, 145, 188, 253, 196, 57, 188, 8, 105, 188, 60, 175, 85, 178, 60, 105, 119, 80, 188, 163, 84, 1, 61, 173, 29, 174, 60, 203, 245, 15, 189, 112, 145, 119, 59, 83, 164, 198, 187, 200, 100, 244, 59, 224, 143, 247, 188, 36, 91, 19, 186, 66, 181, 254, 188, 210, 117, 80, 59, 62, 31, 216, 188, 36, 230, 251, 60, 186, 184, 29, 189, 131, 20, 129, 59, 131, 32, 23, 61, 56, 181, 134, 60, 86, 111, 161, 187, 179, 12, 226, 60, 69, 72, 240, 60, 0, 1, 190, 60, 93, 17, 10, 61, 135, 202, 236, 60, 247, 37, 134, 188, 111, 115, 254, 185, 226, 68, 218, 60, 25, 213, 49, 188, 92, 207, 62, 60, 66, 96, 234, 60, 161, 234, 18, 61, 150, 23, 58, 60, 205, 134, 5, 188, 39, 4, 177, 188, 26, 90, 63, 188, 209, 127, 77, 188, 51, 37, 245, 188, 251, 127, 108, 58, 38, 3, 104, 60, 246, 182, 145, 188, 14, 199, 178, 187, 229, 40, 37, 189, 246, 144, 140, 188, 255, 213, 153, 59, 133, 181, 169, 60, 121, 254, 186, 188, 219, 159, 25, 61, 17, 218, 6, 189, 250, 205, 7, 189, 185, 112, 31, 61, 165, 236, 154, 188, 23, 111, 58, 60, 211, 244, 214, 188, 131, 149, 20, 188, 73, 183, 186, 188, 206, 163, 4, 189, 163, 72, 182, 187, 84, 71, 29, 61, 73, 231, 11, 61, 118, 34, 240, 60, 83, 123, 1, 189, 114, 188, 32, 189, 17, 65, 158, 188, 88, 153, 160, 188, 75, 243, 206, 59, 50, 73, 165, 188, 166, 65, 0, 59, 194, 140, 249, 188, 36, 155, 35, 61, 80, 87, 238, 188, 236, 169, 23, 61, 45, 37, 183, 60, 142, 86, 92, 188, 94, 110, 120, 188, 171, 155, 43, 189, 65, 247, 169, 188, 191, 246, 109, 60, 236, 86, 218, 60, 223, 144, 24, 189, 220, 60, 166, 188, 111, 8, 201, 60, 138, 170, 26, 189, 196, 140, 212, 187, 40, 106, 10, 61, 67, 236, 4, 189, 106, 7, 4, 189, 52, 35, 143, 60, 166, 222, 67, 188, 69, 35, 157, 60, 254, 219, 175, 58, 226, 71, 40, 188, 213, 128, 95, 188, 35, 109, 150, 60, 236, 195, 158, 60, 244, 122, 147, 60, 189, 119, 32, 189, 225, 8, 36, 59, 198, 144, 218, 58, 91, 18, 43, 60, 32, 142, 234, 60, 158, 133, 124, 187, 16, 134, 6, 188, 7, 73, 49, 188, 159, 6, 39, 185, 144, 220, 12, 188, 122, 88, 204, 60, 242, 38, 207, 60, 126, 159, 133, 187, 64, 242, 2, 61, 222, 127, 201, 59, 176, 49, 0, 189, 251, 168, 25, 189, 83, 170, 237, 188, 3, 134, 174, 60, 181, 0, 8, 61, 60, 38, 17, 188, 54, 189, 27, 61, 139, 198, 13, 59, 86, 127, 45, 61, 73, 118, 156, 59, 163, 11, 16, 61, 253, 143, 123, 59, 73, 91, 15, 189, 202, 114, 176, 186, 180, 86, 206, 188, 5, 39, 26, 59, 240, 188, 117, 60, 190, 76, 221, 188, 34, 174, 35, 61, 70, 248, 26, 189, 144, 254, 140, 188, 66, 133, 220, 188, 66, 213, 17, 189, 242, 251, 78, 59, 20, 130, 148, 60, 235, 244, 206, 59, 16, 32, 141, 60, 36, 254, 247, 188, 33, 14, 215, 59, 98, 48, 209, 59, 66, 222, 35, 61, 173, 50, 215, 188, 40, 198, 210, 60, 157, 79, 72, 58, 251, 72, 232, 60, 98, 244, 6, 189, 113, 144, 11, 189, 33, 251, 2, 189, 211, 152, 237, 188, 149, 155, 176, 187, 2, 122, 9, 61, 36, 9, 20, 189, 96, 100, 18, 189, 234, 192, 213, 60, 43, 243, 83, 188, 81, 158, 103, 188, 176, 237, 234, 60, 153, 199, 156, 188, 217, 20, 79, 188, 143, 102, 144, 188, 238, 187, 114, 185, 180, 213, 207, 60, 106, 7, 93, 188, 215, 251, 39, 189, 108, 76, 130, 188, 174, 217, 26, 189, 181, 36, 13, 189, 54, 240, 249, 188, 30, 30, 5, 188, 148, 123, 253, 60, 42, 87, 1, 60, 132, 48, 19, 61, 81, 39, 24, 61, 183, 204, 34, 61, 188, 232, 125, 60, 31, 232, 17, 189, 247, 144, 36, 61, 13, 136, 25, 188, 4, 250, 220, 188, 88, 224, 42, 61, 9, 197, 119, 59, 100, 200, 131, 60, 107, 98, 191, 60, 237, 99, 125, 60, 155, 147, 130, 60, 164, 12, 149, 60, 52, 144, 17, 189, 7, 152, 176, 188, 137, 161, 17, 61, 155, 243, 152, 188, 232, 25, 108, 59, 64, 226, 202, 59, 242, 15, 24, 189, 33, 69, 141, 188, 212, 127, 227, 188, 14, 144, 12, 189, 53, 91, 242, 60, 107, 41, 6, 189, 69, 153, 62, 188, 199, 57, 41, 60, 197, 207, 254, 188, 40, 104, 21, 189, 169, 55, 2, 60, 157, 224, 41, 61, 72, 223, 167, 188, 112, 145, 46, 60, 227, 6, 179, 188, 178, 254, 146, 60, 208, 76, 144, 60, 209, 122, 32, 189, 131, 91, 181, 188, 58, 204, 10, 189, 125, 68, 234, 188, 161, 177, 146, 60, 136, 182, 207, 60, 18, 249, 58, 188, 242, 172, 159, 60, 99, 78, 4, 189, 142, 71, 231, 188, 113, 92, 13, 61, 26, 164, 189, 186, 228, 69, 100, 60, 71, 233, 6, 188, 118, 44, 33, 189, 65, 87, 65, 58, 227, 84, 14, 61, 251, 42, 16, 61, 29, 149, 67, 188, 31, 77, 116, 60, 169, 31, 233, 185, 64, 198, 6, 188, 157, 107, 234, 60, 67, 185, 109, 60, 108, 209, 185, 188, 149, 122, 230, 188, 139, 47, 186, 187, 195, 144, 246, 188, 161, 70, 165, 187, 10, 48, 25, 61, 156, 155, 76, 60, 47, 18, 210, 60, 216, 145, 251, 188, 39, 31, 237, 188, 240, 132, 218, 59, 25, 44, 203, 60, 36, 121, 86, 188, 201, 13, 108, 186, 142, 143, 179, 188, 179, 230, 206, 188, 186, 56, 89, 60, 79, 147, 246, 188, 64, 248, 102, 59, 107, 143, 192, 188, 209, 180, 250, 187, 43, 8, 169, 60, 17, 41, 146, 60, 215, 198, 1, 61, 29, 206, 14, 188, 4, 77, 222, 187, 220, 192, 4, 189, 138, 93, 99, 60, 65, 134, 6, 61, 116, 188, 122, 60, 154, 221, 41, 188, 227, 143, 13, 61, 198, 188, 19, 61, 72, 153, 217, 60, 105, 46, 124, 60, 243, 133, 217, 60, 47, 97, 19, 188, 189, 22, 7, 61, 81, 59, 135, 59, 111, 126, 18, 61, 76, 177, 98, 188, 222, 240, 234, 187, 179, 224, 208, 188, 228, 44, 196, 59, 220, 125, 229, 188, 64, 127, 78, 188, 16, 101, 16, 61, 229, 40, 138, 60, 130, 88, 194, 60, 96, 211, 143, 188, 48, 158, 107, 60, 162, 239, 237, 188, 32, 199, 19, 189, 192, 10, 197, 187, 218, 11, 191, 60, 59, 90, 3, 61, 113, 49, 233, 60, 228, 218, 187, 188, 94, 55, 205, 60, 66, 79, 65, 187, 214, 18, 43, 61, 129, 229, 16, 61, 16, 148, 228, 60, 14, 62, 219, 60, 177, 102, 255, 60, 223, 129, 60, 188, 194, 141, 200, 188, 99, 63, 207, 60, 67, 248, 20, 60, 132, 127, 73, 188, 12, 237, 5, 188, 46, 210, 141, 188, 7, 208, 28, 189, 90, 23, 254, 59, 89, 199, 10, 189, 14, 20, 164, 188, 8, 28, 2, 61, 95, 143, 32, 60, 145, 10, 164, 188, 34, 147, 45, 189, 28, 39, 26, 61, 148, 180, 18, 189, 118, 199, 144, 60, 36, 146, 202, 60, 120, 191, 111, 60, 36, 215, 82, 59, 40, 212, 42, 61, 198, 97, 245, 60, 58, 108, 17, 61, 50, 6, 213, 60, 56, 233, 204, 60, 162, 127, 133, 59, 219, 157, 123, 59, 254, 127, 43, 61, 124, 71, 58, 60, 85, 146, 253, 60, 21, 186, 241, 60, 148, 109, 26, 189, 196, 126, 243, 60, 245, 150, 143, 60, 132, 15, 12, 61, 101, 221, 133, 188, 251, 63, 172, 188, 155, 69, 227, 60, 73, 171, 181, 60, 207, 253, 137, 60, 31, 160, 61, 188, 225, 60, 34, 61, 145, 131, 38, 189, 104, 39, 148, 188, 136, 163, 33, 60, 189, 28, 101, 60, 84, 87, 32, 189, 125, 147, 243, 60, 126, 165, 24, 60, 175, 183, 160, 188, 200, 33, 142, 188, 30, 226, 211, 188, 26, 60, 175, 59, 180, 58, 186, 60, 46, 192, 247, 188, 141, 6, 139, 60, 127, 231, 179, 60, 134, 173, 12, 60, 9, 59, 250, 59, 87, 83, 15, 189, 48, 75, 146, 188, 223, 123, 242, 188, 30, 65, 141, 60, 137, 33, 22, 188, 163, 29, 242, 187, 166, 105, 33, 189, 5, 131, 33, 189, 233, 78, 97, 187, 124, 133, 126, 59, 107, 119, 154, 59, 13, 93, 160, 188, 2, 78, 13, 189, 252, 144, 41, 60, 30, 224, 8, 61, 13, 222, 238, 59, 120, 54, 32, 189, 42, 183, 28, 61, 214, 94, 167, 60, 106, 84, 113, 188, 169, 92, 241, 188, 79, 238, 4, 61, 142, 203, 198, 187, 13, 105, 182, 60, 27, 61, 41, 189, 69, 122, 192, 187, 81, 158, 252, 60, 164, 85, 234, 60, 54, 169, 65, 186, 186, 83, 213, 59, 9, 67, 63, 188, 57, 8, 217, 187, 48, 138, 194, 188, 116, 76, 251, 60, 73, 234, 29, 61, 221, 40, 36, 189, 188, 224, 153, 60, 39, 15, 148, 60, 0, 1, 227, 60, 71, 54, 16, 188, 45, 195, 187, 188, 57, 56, 75, 60, 214, 88, 41, 189, 152, 64, 154, 60, 20, 248, 11, 189, 55, 13, 169, 60, 193, 27, 13, 61, 175, 55, 114, 187, 33, 62, 0, 189, 165, 173, 230, 188, 182, 18, 205, 60, 45, 4, 20, 61, 255, 135, 232, 60, 160, 106, 215, 60, 162, 205, 101, 60, 7, 64, 2, 61, 247, 252, 24, 60, 216, 59, 39, 186, 196, 231, 36, 61, 23, 92, 77, 187, 3, 221, 40, 60, 51, 156, 132, 60, 154, 217, 193, 60, 162, 155, 141, 188, 211, 238, 134, 187, 232, 79, 248, 187, 117, 41, 206, 187, 162, 228, 189, 188, 32, 38, 74, 184, 43, 59, 0, 189, 43, 27, 67, 188, 122, 242, 195, 60, 170, 75, 25, 61, 112, 172, 3, 189, 15, 201, 174, 60, 191, 146, 57, 60, 193, 201, 237, 59, 41, 226, 58, 188, 224, 179, 13, 61, 35, 104, 237, 60, 227, 169, 252, 60, 99, 142, 16, 189, 168, 122, 206, 60, 92, 172, 22, 61, 22, 62, 70, 188, 161, 227, 94, 60, 21, 82, 192, 188, 7, 209, 78, 59, 157, 71, 94, 187, 207, 139, 95, 188, 30, 145, 111, 60, 5, 234, 218, 60, 7, 18, 48, 187, 205, 15, 129, 60, 166, 145, 20, 189, 103, 254, 29, 188, 85, 167, 245, 60, 189, 66, 172, 188, 8, 57, 31, 61, 178, 231, 167, 187, 226, 201, 27, 61, 197, 247, 169, 60, 60, 154, 200, 188, 9, 238, 154, 188, 64, 15, 120, 188, 100, 178, 17, 189, 214, 105, 18, 189, 162, 65, 128, 60, 110, 26, 254, 188, 40, 146, 37, 189, 113, 46, 30, 188, 100, 194, 168, 60, 52, 42, 217, 58, 115, 38, 13, 189, 41, 217, 40, 189, 198, 208, 28, 189, 101, 16, 140, 188, 146, 28, 115, 187, 63, 146, 196, 59, 160, 49, 31, 60, 1, 88, 72, 188, 201, 137, 143, 59, 34, 143, 8, 189, 76, 127, 150, 188, 165, 41, 247, 188, 162, 100, 200, 188, 248, 180, 228, 188, 155, 231, 234, 188, 79, 232, 166, 188, 118, 184, 157, 188, 189, 67, 128, 187, 16, 168, 30, 61, 199, 215, 116, 188, 154, 254, 109, 60, 116, 169, 219, 60, 134, 138, 45, 189, 161, 224, 212, 187, 214, 42, 157, 188, 71, 247, 26, 61, 70, 81, 28, 188, 13, 55, 17, 61, 202, 131, 218, 60, 223, 58, 104, 60, 71, 169, 43, 186, 194, 128, 226, 59, 190, 115, 130, 187, 230, 147, 239, 59, 90, 141, 6, 61, 81, 105, 0, 189, 223, 199, 212, 188, 169, 198, 255, 188, 47, 102, 26, 189, 210, 238, 17, 187, 99, 250, 66, 60, 19, 112, 18, 61, 238, 51, 192, 59, 13, 25, 253, 60, 65, 220, 233, 59, 127, 242, 218, 188, 108, 96, 253, 60, 237, 104, 46, 187, 69, 124, 131, 188, 128, 99, 117, 60, 3, 52, 251, 60, 80, 209, 215, 59, 252, 49, 237, 59, 85, 231, 11, 61, 206, 147, 14, 189, 96, 105, 43, 61, 91, 37, 183, 188, 84, 71, 90, 60, 113, 130, 42, 188, 123, 39, 130, 188, 228, 150, 239, 60, 148, 25, 144, 60, 134, 238, 148, 60, 178, 174, 151, 60, 226, 236, 201, 60, 192, 142, 8, 189, 62, 82, 0, 61, 224, 31, 50, 60, 254, 33, 35, 189, 230, 224, 98, 59, 57, 238, 212, 188, 61, 122, 64, 59, 76, 199, 18, 61, 42, 203, 189, 188, 5, 21, 20, 189, 139, 141, 27, 60, 77, 107, 90, 188, 25, 145, 158, 188, 208, 27, 71, 60, 161, 30, 44, 189, 102, 247, 211, 188, 103, 71, 165, 188, 31, 66, 30, 189, 66, 148, 150, 60, 187, 103, 13, 189, 27, 250, 194, 59, 19, 208, 21, 189, 50, 99, 29, 189, 186, 174, 150, 188, 241, 178, 112, 188, 29, 148, 28, 60, 30, 247, 7, 189, 206, 251, 227, 188, 3, 20, 17, 61, 90, 51, 54, 60, 104, 242, 18, 61, 237, 65, 149, 59, 33, 106, 9, 60, 183, 240, 157, 188, 192, 70, 168, 60, 72, 5, 59, 188, 175, 9, 188, 59, 10, 159, 41, 60, 72, 180, 21, 189, 238, 101, 93, 188, 182, 58, 10, 61, 189, 226, 209, 60, 228, 248, 43, 61, 189, 36, 5, 188, 195, 206, 0, 188, 153, 229, 5, 189, 252, 96, 131, 188, 131, 185, 198, 60, 148, 177, 180, 188, 22, 234, 170, 60, 218, 45, 144, 60, 109, 59, 187, 188, 89, 245, 201, 60, 211, 114, 131, 188, 215, 199, 10, 189, 31, 52, 42, 189, 79, 165, 18, 188, 119, 123, 171, 60, 230, 79, 190, 60, 62, 131, 171, 60, 50, 162, 148, 59, 98, 56, 132, 188, 139, 82, 94, 187, 195, 22, 5, 60, 108, 207, 139, 188, 100, 239, 93, 60, 198, 4, 177, 188, 27, 68, 17, 189, 177, 163, 246, 60, 157, 161, 166, 188, 95, 131, 33, 189, 107, 19, 32, 60, 83, 192, 128, 188, 166, 37, 140, 60, 149, 238, 235, 188, 32, 240, 82, 59, 8, 130, 46, 189, 50, 197, 30, 189, 119, 239, 251, 60, 225, 125, 166, 187, 98, 153, 6, 60, 72, 79, 250, 188, 5, 221, 138, 188, 210, 191, 158, 188, 108, 86, 227, 188, 208, 255, 11, 61, 59, 29, 62, 187, 245, 121, 148, 188, 230, 144, 111, 60, 104, 232, 17, 61, 37, 212, 40, 61, 138, 178, 59, 59, 82, 16, 112, 60, 41, 82, 121, 188, 222, 187, 230, 60, 88, 16, 175, 187, 226, 93, 210, 188, 155, 232, 166, 59, 138, 9, 45, 188, 12, 217, 41, 61, 192, 57, 158, 58, 201, 57, 216, 60, 193, 102, 37, 61, 59, 81, 184, 60, 253, 60, 75, 186, 33, 114, 199, 187, 250, 164, 219, 188, 250, 99, 5, 189, 50, 142, 174, 60, 166, 7, 9, 188, 10, 142, 243, 60, 55, 208, 203, 188, 249, 171, 14, 188, 183, 7, 235, 188, 217, 125, 174, 60, 204, 70, 108, 188, 114, 0, 1, 61, 223, 197, 28, 59, 86, 116, 121, 188, 169, 161, 160, 187, 132, 146, 188, 188, 181, 233, 142, 59, 50, 100, 178, 188, 186, 38, 226, 188, 85, 72, 42, 189, 197, 188, 207, 188, 113, 210, 152, 187, 134, 88, 38, 189, 76, 23, 185, 188, 111, 179, 52, 60, 26, 55, 105, 188, 35, 182, 52, 188, 71, 171, 1, 189, 254, 96, 19, 189, 229, 99, 164, 188, 36, 187, 203, 187, 78, 178, 203, 188, 196, 51, 151, 60, 223, 14, 242, 60, 16, 141, 245, 60, 5, 86, 7, 189, 94, 151, 161, 188, 207, 96, 212, 60, 59, 140, 234, 186, 66, 232, 17, 61, 170, 194, 35, 189, 1, 251, 137, 188, 234, 101, 9, 58, 230, 23, 133, 188, 64, 254, 1, 189, 101, 164, 31, 188, 179, 25, 221, 187, 130, 145, 116, 59, 167, 87, 94, 188, 251, 90, 56, 188, 190, 27, 197, 188, 184, 194, 153, 60, 69, 194, 157, 60, 233, 30, 48, 188, 138, 44, 39, 188, 63, 145, 4, 189, 190, 166, 2, 61, 60, 75, 84, 60, 229, 44, 215, 187, 146, 248, 186, 59, 81, 160, 0, 189, 232, 82, 34, 61, 26, 55, 58, 187, 68, 51, 234, 60, 37, 81, 87, 188, 1, 41, 138, 60, 94, 136, 244, 60, 66, 185, 154, 60, 251, 4, 37, 189, 127, 7, 7, 61, 189, 69, 18, 189, 238, 54, 221, 188, 177, 175, 131, 188, 130, 64, 214, 60, 86, 146, 197, 188, 12, 154, 144, 60, 88, 131, 229, 187, 85, 63, 189, 60, 30, 91, 6, 60, 210, 17, 86, 60, 162, 88, 241, 60, 65, 1, 58, 59, 198, 1, 223, 188, 79, 69, 107, 188, 9, 204, 138, 188, 70, 234, 2, 189, 117, 66, 195, 188, 64, 178, 114, 59, 248, 151, 229, 188, 210, 62, 238, 59, 168, 90, 233, 188, 56, 213, 39, 61, 114, 250, 15, 60, 35, 159, 197, 60, 52, 226, 166, 187, 73, 50, 113, 60, 86, 29, 10, 60, 87, 232, 237, 60, 39, 95, 116, 188, 162, 100, 8, 61, 32, 131, 101, 60, 72, 129, 187, 59, 229, 214, 250, 186, 44, 22, 240, 188, 239, 117, 3, 189, 218, 174, 219, 187, 118, 7, 218, 60, 192, 18, 164, 188, 219, 162, 141, 188, 157, 186, 213, 59, 78, 87, 31, 189, 238, 73, 20, 61, 210, 2, 46, 188, 172, 105, 194, 60, 24, 0, 43, 61, 194, 71, 25, 59, 132, 55, 26, 61, 144, 83, 175, 188, 154, 209, 194, 60, 88, 55, 103, 187, 91, 129, 24, 59, 44, 144, 111, 188, 196, 192, 7, 189, 15, 6, 131, 188, 195, 167, 240, 59, 33, 47, 158, 186, 242, 158, 26, 60, 205, 190, 95, 187, 4, 201, 191, 59, 91, 92, 155, 188, 32, 190, 35, 61, 148, 88, 155, 188, 218, 6, 46, 59, 181, 87, 43, 189, 233, 238, 136, 59, 89, 3, 47, 186, 174, 50, 182, 186, 136, 33, 85, 187, 213, 76, 46, 189, 28, 39, 26, 61, 7, 247, 245, 60, 246, 135, 236, 188, 201, 40, 32, 189, 166, 164, 173, 59, 206, 248, 43, 61, 169, 31, 16, 189, 159, 122, 104, 60, 90, 211, 223, 57, 172, 63, 237, 188, 17, 27, 85, 60, 55, 248, 14, 189, 99, 78, 4, 189, 89, 83, 186, 60, 135, 145, 3, 189, 101, 93, 222, 188, 204, 116, 21, 189, 161, 51, 10, 61, 72, 144, 10, 188, 81, 39, 31, 59, 203, 32, 134, 60, 204, 129, 245, 187, 140, 194, 12, 188, 63, 83, 26, 59, 137, 193, 144, 59, 2, 155, 189, 188, 159, 215, 27, 61, 121, 57, 42, 61, 188, 202, 180, 187, 106, 20, 224, 188, 194, 9, 158, 60, 139, 226, 240, 58, 97, 30, 143, 60, 57, 168, 232, 186, 144, 32, 7, 189, 255, 251, 7, 61, 245, 204, 241, 188, 39, 249, 143, 60, 37, 190, 29, 189, 213, 21, 136, 58, 48, 162, 158, 188, 62, 255, 56, 188, 188, 90, 155, 60, 176, 61, 219, 187, 233, 232, 242, 57, 214, 238, 75, 187, 2, 228, 235, 188, 120, 136, 168, 188, 38, 39, 45, 188, 215, 31, 61, 188, 182, 231, 71, 188, 2, 202, 146, 188, 210, 108, 32, 61, 56, 81, 154, 59, 68, 180, 193, 188, 253, 56, 242, 60, 13, 121, 64, 187, 209, 225, 63, 59, 63, 193, 60, 60, 32, 97, 151, 58, 237, 218, 22, 188, 216, 157, 27, 61, 136, 162, 5, 189, 197, 104, 192, 60, 37, 228, 224, 60, 201, 31, 1, 188, 9, 103, 73, 188, 95, 152, 196, 188, 101, 49, 29, 188, 175, 5, 31, 189, 151, 231, 182, 187, 26, 68, 11, 61, 199, 152, 109, 60, 125, 105, 37, 189, 89, 177, 33, 189, 79, 50, 184, 60, 148, 38, 135, 58, 153, 142, 224, 188, 200, 73, 216, 188, 132, 108, 36, 59, 169, 88, 54, 185, 117, 51, 19, 60, 134, 3, 52, 188, 78, 51, 226, 60, 42, 139, 145, 188, 154, 67, 138, 60, 217, 166, 222, 188, 91, 4, 223, 60, 108, 142, 221, 187, 131, 251, 179, 188, 230, 64, 234, 188, 116, 231, 79, 59, 66, 159, 140, 60, 117, 234, 82, 188, 49, 183, 37, 61, 214, 251, 158, 188, 57, 113, 191, 60, 135, 20, 52, 188, 30, 215, 89, 58, 2, 63, 68, 188, 143, 69, 19, 61, 199, 160, 107, 59, 230, 191, 111, 188, 205, 92, 19, 189, 32, 228, 244, 59, 147, 173, 33, 61, 242, 102, 30, 189, 112, 7, 95, 188, 116, 195, 148, 188, 8, 127, 221, 60, 230, 69, 82, 59, 236, 156, 76, 60, 192, 232, 16, 189, 219, 9, 130, 187, 237, 159, 186, 187, 173, 31, 8, 189, 219, 48, 168, 60, 4, 160, 39, 189, 212, 169, 200, 188, 217, 15, 180, 188, 63, 50, 215, 60, 248, 217, 237, 60, 239, 38, 19, 61, 92, 235, 164, 59, 120, 241, 15, 189, 221, 12, 32, 61, 244, 215, 18, 58, 83, 157, 145, 188, 150, 68, 19, 61, 52, 255, 101, 188, 17, 134, 204, 60, 169, 7, 165, 187, 208, 207, 10, 60, 168, 92, 217, 188, 203, 35, 147, 187, 22, 176, 17, 60, 83, 129, 196, 60, 126, 44, 152, 60, 221, 112, 143, 188, 238, 17, 39, 60, 179, 104, 156, 187, 43, 223, 168, 188, 251, 118, 15, 60, 115, 123, 165, 188, 127, 71, 201, 60, 135, 196, 250, 59, 160, 247, 18, 187, 250, 244, 18, 61, 102, 25, 155, 60, 158, 130, 238, 188, 79, 185, 88, 60, 188, 232, 131, 60, 169, 0, 208, 59, 182, 189, 213, 60, 80, 87, 173, 186, 246, 35, 219, 60, 1, 147, 23, 189, 165, 240, 151, 60, 195, 61, 46, 189, 128, 42, 16, 189, 217, 197, 143, 60, 117, 172, 0, 61, 236, 57, 235, 188, 120, 47, 248, 188, 69, 20, 240, 185, 200, 165, 43, 186, 98, 69, 187, 60, 52, 97, 146, 59, 122, 22, 33, 189, 79, 62, 30, 189, 74, 81, 19, 189, 176, 50, 166, 60, 71, 123, 17, 189, 65, 15, 213, 188, 106, 132, 234, 188, 7, 14, 189, 60, 21, 35, 144, 187, 158, 234, 55, 60, 35, 195, 216, 60, 183, 161, 43, 61, 192, 132, 179, 60, 180, 103, 246, 60, 40, 62, 60, 186, 199, 236, 53, 187, 82, 80, 21, 189, 212, 201, 238, 188, 251, 214, 114, 59, 27, 193, 212, 60, 43, 90, 25, 189, 26, 112, 221, 60, 105, 88, 96, 59, 163, 31, 30, 187, 193, 64, 26, 61, 105, 56, 187, 188, 216, 210, 207, 60, 88, 158, 224, 187, 202, 131, 127, 188, 59, 202, 74, 187, 195, 180, 81, 188, 97, 228, 149, 59, 236, 157, 20, 189, 60, 135, 145, 188, 249, 191, 144, 57, 182, 117, 133, 188, 233, 195, 1, 61, 151, 176, 121, 60, 233, 118, 230, 188, 80, 169, 199, 60, 42, 203, 75, 60, 182, 149, 183, 188, 248, 145, 22, 189, 91, 78, 161, 187, 222, 4, 180, 188, 179, 245, 138, 60, 151, 95, 241, 188, 89, 137, 234, 60, 158, 153, 16, 60, 176, 28, 15, 61, 248, 64, 28, 189, 156, 72, 6, 189, 119, 131, 4, 61, 189, 187, 100, 60, 197, 192, 19, 189, 63, 139, 197, 188, 178, 116, 242, 60, 81, 192, 238, 188, 60, 129, 122, 188, 182, 63, 170, 185, 4, 248, 60, 60, 243, 34, 116, 188, 246, 108, 198, 188, 181, 235, 199, 188, 222, 24, 250, 188, 164, 110, 20, 189, 196, 207, 213, 60, 83, 167, 180, 188, 33, 199, 220, 188, 241, 241, 102, 187, 151, 67, 249, 60, 130, 33, 20, 189, 234, 131, 82, 60, 230, 115, 181, 58, 218, 199, 201, 60, 46, 85, 215, 60, 187, 115, 209, 60, 125, 26, 16, 61, 130, 177, 39, 189, 146, 199, 142, 60, 42, 190, 182, 60, 113, 85, 28, 61, 24, 213, 46, 61, 243, 204, 126, 188, 167, 153, 157, 188, 46, 14, 232, 60, 47, 223, 181, 188, 251, 198, 3, 61, 25, 232, 169, 187, 120, 240, 200, 187, 157, 132, 253, 187, 188, 11, 128, 59, 220, 213, 9, 186, 42, 240, 239, 58, 48, 83, 205, 188, 74, 71, 10, 61, 136, 185, 217, 60, 62, 54, 213, 188, 79, 123, 166, 60, 105, 200, 39, 61, 219, 151, 211, 187, 226, 11, 249, 60, 151, 188, 64, 188, 136, 47, 42, 187, 149, 19, 4, 189, 211, 177, 26, 188, 134, 48, 122, 60, 189, 175, 13, 189, 165, 226, 36, 188, 11, 246, 158, 188, 236, 191, 213, 187, 247, 29, 15, 188, 192, 67, 32, 189, 253, 159, 7, 61, 123, 253, 141, 60, 243, 69, 44, 186, 195, 83, 133, 188, 243, 54, 35, 61, 45, 38, 165, 187, 80, 112, 169, 184, 179, 138, 95, 60, 141, 107, 7, 189, 179, 134, 13, 189, 249, 143, 35, 60, 138, 122, 172, 60, 139, 137, 205, 60, 227, 239, 37, 60, 146, 253, 234, 188, 38, 27, 155, 57, 87, 108, 234, 187, 77, 221, 238, 186, 234, 152, 20, 61, 21, 146, 33, 189, 15, 214, 188, 60, 228, 244, 31, 189, 74, 175, 205, 60, 124, 252, 12, 188, 28, 15, 128, 58, 95, 63, 87, 60, 60, 147, 187, 60, 32, 29, 196, 60, 127, 149, 154, 59, 106, 230, 29, 189, 163, 183, 125, 60, 65, 97, 38, 61, 114, 163, 22, 189, 255, 246, 130, 188, 227, 239, 206, 187, 228, 6, 234, 59, 204, 38, 100, 57, 90, 44, 248, 188, 108, 210, 40, 189, 244, 221, 28, 189, 9, 85, 151, 187, 95, 157, 36, 189, 90, 102, 61, 60, 241, 23, 13, 186, 74, 192, 20, 188, 49, 233, 30, 189, 202, 140, 112, 188, 190, 120, 220, 188, 70, 61, 6, 189, 57, 83, 191, 60, 85, 12, 31, 60, 144, 78, 24, 61, 151, 190, 254, 60, 168, 130, 1, 60, 255, 99, 225, 59, 179, 62, 69, 188, 195, 242, 16, 59, 114, 157, 31, 189, 123, 57, 191, 188, 29, 156, 200, 188, 142, 179, 236, 60, 43, 239, 238, 58, 172, 242, 24, 187, 60, 109, 73, 60, 132, 233, 32, 61, 100, 92, 0, 189, 3, 63, 20, 189, 177, 77, 46, 57, 99, 112, 162, 188, 8, 159, 16, 189, 172, 174, 40, 61, 28, 44, 199, 188, 157, 27, 219, 59, 31, 59, 150, 188, 211, 166, 85, 60, 1, 140, 15, 189, 161, 92, 252, 60, 232, 185, 5, 189, 70, 84, 28, 60, 253, 236, 173, 58, 149, 73, 245, 60, 25, 156, 90, 188, 178, 105, 12, 189, 157, 227, 109, 187, 93, 215, 164, 60, 78, 195, 34, 189, 105, 82, 204, 187, 55, 175, 63, 187, 123, 153, 182, 188, 222, 153, 153, 188, 89, 221, 82, 188, 89, 215, 42, 61, 196, 230, 126, 60, 193, 46, 23, 189, 86, 86, 121, 187, 236, 94, 31, 189, 228, 88, 6, 189, 160, 230, 223, 187, 31, 11, 167, 57, 235, 201, 171, 187, 146, 63, 224, 60, 115, 208, 89, 60, 211, 190, 152, 186, 229, 183, 8, 61, 138, 195, 31, 189, 35, 3, 178, 188, 53, 88, 7, 189, 188, 175, 6, 61, 133, 7, 91, 188, 48, 242, 194, 188, 199, 214, 28, 189, 62, 139, 29, 189, 34, 245, 22, 189, 76, 111, 174, 58, 184, 226, 28, 189, 171, 29, 129, 60, 211, 150, 177, 60, 49, 177, 240, 57, 173, 141, 204, 188, 30, 253, 195, 188, 111, 77, 48, 188, 88, 213, 194, 59, 97, 198, 125, 188, 140, 209, 242, 58, 21, 23, 189, 188, 235, 241, 136, 60, 135, 99, 243, 60, 212, 72, 191, 59, 184, 78, 5, 189, 98, 48, 37, 61, 183, 151, 171, 188, 132, 202, 167, 60, 180, 205, 104, 58, 242, 135, 142, 187, 210, 31, 181, 188, 235, 13, 203, 187, 90, 224, 9, 58, 246, 116, 171, 187, 136, 94, 65, 60, 16, 191, 35, 61, 118, 114, 129, 60, 140, 137, 136, 60, 219, 241, 65, 188, 124, 69, 19, 189, 98, 50, 1, 61, 72, 125, 128, 60, 161, 86, 3, 188, 214, 246, 95, 59, 21, 46, 149, 188, 92, 173, 12, 61, 236, 63, 254, 188, 115, 210, 249, 188, 194, 100, 147, 58, 173, 24, 31, 189, 139, 40, 33, 60, 139, 172, 42, 61, 3, 207, 1, 60, 217, 184, 145, 187, 148, 25, 92, 60, 113, 242, 32, 61, 251, 208, 139, 188, 143, 11, 22, 189, 46, 28, 28, 189, 228, 236, 155, 188, 219, 13, 33, 189, 1, 120, 180, 60, 208, 40, 74, 188, 139, 244, 19, 61, 153, 159, 17, 61, 63, 83, 154, 58, 167, 56, 211, 59, 151, 220, 198, 188, 225, 220, 44, 61, 138, 126, 208, 60, 68, 119, 129, 60, 8, 7, 6, 189, 99, 125, 113, 60, 86, 12, 191, 60, 48, 160, 248, 188, 244, 19, 91, 188, 43, 171, 54, 60, 143, 236, 48, 188, 126, 24, 218, 59, 253, 143, 197, 60, 14, 248, 6, 189, 186, 195, 42, 189, 126, 49, 230, 188, 182, 168, 225, 59, 174, 115, 28, 60, 51, 220, 176, 188, 27, 119, 94, 60, 151, 27, 210, 188, 175, 111, 8, 189, 124, 149, 176, 188, 240, 69, 3, 61, 241, 236, 171, 60, 245, 75, 45, 189, 252, 253, 127, 186, 87, 89, 224, 60, 240, 227, 155, 60, 188, 218, 206, 188, 197, 119, 141, 186, 113, 88, 33, 188, 11, 133, 136, 60, 194, 93, 35, 189, 158, 234, 204, 187, 205, 69, 43, 61, 209, 173, 28, 61, 97, 29, 59, 188, 88, 201, 206, 187, 63, 148, 16, 187, 142, 1, 14, 61, 4, 55, 134, 188, 50, 181, 26, 61, 109, 22, 83, 188, 184, 54, 233, 60, 106, 139, 63, 188, 148, 15, 222, 59, 255, 167, 205, 60, 176, 106, 18, 189, 202, 57, 121, 59, 60, 178, 135, 60, 114, 26, 63, 60, 214, 193, 35, 188, 231, 62, 15, 189, 220, 202, 38, 61, 167, 131, 13, 189, 93, 253, 165, 188, 181, 69, 211, 186, 234, 84, 31, 61, 140, 227, 38, 189, 172, 135, 142, 60, 7, 206, 231, 60, 91, 173, 5, 61, 13, 131, 27, 61, 42, 107, 178, 184, 30, 132, 239, 60, 63, 190, 10, 61, 29, 95, 145, 188, 14, 112, 23, 60, 93, 70, 1, 61, 177, 132, 213, 188, 128, 10, 150, 188, 198, 165, 206, 188, 116, 55, 100, 188, 196, 25, 7, 61, 212, 194, 210, 188, 70, 227, 56, 187, 121, 106, 39, 189, 39, 150, 45, 189, 126, 119, 212, 187, 189, 251, 252, 188, 73, 222, 18, 189, 217, 191, 251, 60, 51, 224, 40, 59, 72, 255, 252, 188, 254, 233, 253, 60, 244, 55, 126, 188, 115, 203, 246, 60, 194, 1, 16, 61, 6, 92, 126, 60, 171, 151, 109, 60, 122, 46, 167, 186, 142, 240, 133, 188, 32, 208, 226, 188, 199, 150, 188, 60, 152, 216, 183, 59, 179, 123, 36, 189, 135, 107, 48, 188, 37, 53, 92, 60, 165, 84, 246, 188, 192, 192, 34, 61, 163, 192, 18, 189, 27, 240, 5, 189, 16, 28, 243, 60, 164, 208, 14, 189, 138, 6, 138, 188, 147, 119, 151, 60, 23, 33, 15, 61, 168, 30, 153, 188, 159, 98, 23, 61, 205, 188, 1, 189, 192, 186, 177, 188, 234, 172, 164, 60, 161, 204, 176, 60, 164, 145, 9, 187, 27, 198, 151, 187, 243, 22, 193, 60, 85, 66, 172, 188, 84, 184, 19, 189, 231, 42, 159, 60, 186, 32, 26, 188, 28, 60, 175, 60, 132, 37, 174, 60, 213, 4, 21, 188, 199, 55, 38, 189, 166, 48, 37, 189, 244, 102, 17, 59, 151, 150, 196, 58, 151, 81, 68, 60, 36, 53, 42, 61, 26, 49, 140, 60, 62, 43, 9, 61, 153, 226, 17, 189, 3, 60, 132, 60, 90, 71, 4, 189, 23, 167, 201, 60, 195, 30, 45, 60, 30, 67, 46, 60, 254, 22, 42, 189, 6, 98, 167, 188, 69, 142, 189, 187, 116, 64, 43, 189, 79, 141, 132, 60, 235, 222, 175, 60, 95, 116, 139, 60, 153, 18, 3, 189, 236, 211, 144, 188, 109, 204, 98, 60, 87, 145, 144, 59, 132, 187, 128, 188, 120, 242, 179, 57, 62, 56, 23, 61, 196, 235, 28, 189, 145, 31, 223, 59, 230, 24, 185, 188, 187, 95, 157, 58, 239, 2, 55, 60, 95, 54, 89, 188, 43, 195, 196, 188, 141, 166, 26, 188, 39, 19, 248, 59, 72, 107, 253, 188, 94, 225, 143, 187, 99, 148, 10, 59, 228, 148, 171, 60, 168, 154, 45, 187, 231, 222, 249, 60, 247, 47, 173, 60, 117, 30, 10, 61, 47, 118, 143, 60, 1, 80, 82, 60, 252, 47, 0, 188, 130, 178, 121, 188, 135, 253, 17, 189, 245, 116, 107, 188, 84, 67, 192, 187, 236, 6, 8, 61, 235, 205, 177, 188, 163, 158, 233, 188, 36, 79, 152, 188, 136, 121, 162, 188, 83, 127, 92, 188, 15, 210, 115, 60, 187, 169, 236, 60, 37, 184, 237, 60, 199, 141, 1, 189, 183, 215, 182, 60, 91, 52, 94, 188, 49, 237, 46, 61, 49, 105, 124, 58, 235, 94, 16, 189, 248, 76, 30, 61, 208, 4, 40, 61, 96, 96, 225, 188, 222, 238, 201, 188, 189, 94, 189, 60, 170, 10, 68, 188, 53, 106, 153, 59, 187, 18, 27, 60, 180, 2, 232, 60, 19, 204, 36, 189, 73, 182, 198, 187, 118, 113, 6, 189, 253, 19, 50, 60, 222, 155, 168, 188, 79, 34, 186, 188, 92, 46, 186, 187, 107, 62, 184, 58, 98, 238, 70, 60, 243, 156, 46, 189, 169, 118, 0, 189, 215, 10, 75, 60, 103, 212, 62, 60, 220, 212, 158, 187, 76, 217, 19, 60, 32, 87, 226, 59, 156, 42, 58, 187, 63, 13, 23, 189, 204, 97, 234, 188, 20, 110, 24, 189, 92, 186, 248, 188, 96, 0, 75, 60, 219, 253, 107, 60, 12, 42, 251, 60, 61, 26, 198, 187, 140, 167, 199, 60, 52, 1, 141, 186, 102, 114, 236, 60, 236, 7, 163, 60, 113, 137, 12, 189, 90, 132, 25, 189, 71, 194, 30, 61, 153, 158, 121, 60, 114, 229, 191, 60, 152, 34, 9, 189, 224, 110, 162, 60, 254, 102, 4, 189, 169, 202, 95, 188, 197, 128, 183, 188, 223, 171, 7, 188, 83, 232, 146, 188, 75, 112, 145, 187, 70, 15, 217, 188, 69, 8, 211, 187, 230, 31, 194, 188, 51, 128, 27, 189, 227, 32, 30, 188, 15, 185, 189, 59, 224, 194, 135, 59, 160, 236, 9, 61, 53, 63, 25, 189, 125, 246, 231, 60, 193, 81, 2, 189, 22, 156, 68, 58, 253, 33, 68, 188, 103, 151, 20, 60, 83, 148, 251, 188, 87, 188, 239, 60, 68, 11, 18, 189, 93, 245, 221, 60, 133, 166, 214, 60, 2, 71, 135, 188, 93, 56, 141, 59, 150, 176, 130, 59, 52, 42, 42, 60, 28, 198, 137, 60, 132, 32, 151, 60, 204, 130, 62, 188, 238, 229, 206, 188, 39, 168, 253, 60, 69, 52, 41, 61, 120, 247, 29, 187, 100, 137, 202, 59, 32, 224, 156, 188, 97, 17, 187, 188, 150, 129, 252, 59, 119, 213, 235, 60, 204, 158, 19, 61, 234, 171, 250, 59, 237, 251, 236, 188, 220, 61, 224, 59, 58, 182, 194, 60, 159, 236, 150, 59, 48, 106, 14, 189, 123, 139, 28, 60, 72, 173, 203, 188, 124, 29, 81, 187, 100, 70, 150, 187, 219, 49, 1, 188, 74, 237, 208, 187, 56, 82, 16, 61, 45, 210, 112, 186, 203, 137, 27, 61, 114, 215, 95, 188, 248, 1, 135, 186, 179, 80, 194, 60, 181, 114, 34, 189, 112, 217, 24, 189, 137, 23, 183, 187, 144, 150, 121, 188, 240, 88, 68, 188, 244, 188, 44, 189, 20, 197, 183, 188, 89, 205, 170, 188, 122, 205, 14, 61, 229, 193, 254, 58, 80, 222, 242, 60, 86, 171, 112, 188, 220, 131, 124, 188, 231, 0, 82, 60, 10, 210, 163, 60, 170, 153, 11, 60, 254, 95, 40, 61, 171, 212, 31, 59, 247, 61, 26, 61, 23, 217, 229, 60, 41, 182, 18, 187, 58, 218, 115, 60, 222, 55, 181, 187, 155, 131, 3, 187, 157, 232, 153, 59, 200, 52, 224, 60, 236, 226, 25, 189, 185, 89, 224, 188, 31, 179, 14, 61, 110, 154, 248, 187, 237, 67, 10, 61, 79, 145, 47, 60, 79, 68, 175, 60, 247, 231, 3, 61, 206, 129, 252, 58, 239, 217, 141, 188, 143, 220, 3, 189, 119, 70, 33, 61, 24, 112, 209, 188, 229, 251, 187, 188, 254, 74, 207, 60, 191, 4, 61, 187, 134, 186, 57, 188, 186, 200, 253, 60, 112, 201, 188, 60, 158, 98, 132, 59, 93, 92, 142, 188, 167, 21, 251, 188, 195, 179, 16, 60, 63, 139, 10, 61, 214, 240, 69, 60, 188, 22, 223, 188, 244, 59, 4, 61, 217, 8, 0, 60, 147, 99, 232, 60, 216, 162, 3, 61, 126, 7, 103, 59, 247, 134, 167, 187, 248, 188, 0, 189, 208, 151, 108, 188, 69, 82, 20, 189, 159, 69, 232, 60, 65, 5, 211, 188, 175, 8, 39, 187, 249, 6, 172, 60, 157, 228, 35, 189, 215, 105, 159, 60, 61, 132, 44, 189, 167, 254, 154, 188, 68, 79, 13, 189, 142, 20, 159, 60, 32, 12, 39, 189, 53, 65, 8, 189, 251, 159, 144, 60, 247, 219, 15, 61, 163, 80, 13, 61, 252, 106, 134, 59, 7, 135, 173, 188, 74, 203, 18, 189, 63, 33, 38, 189, 242, 232, 19, 187, 196, 24, 9, 189, 184, 34, 179, 60, 139, 64, 55, 60, 132, 143, 135, 60, 48, 212, 20, 189, 48, 145, 244, 60, 189, 139, 69, 188, 2, 79, 159, 60, 150, 43, 175, 60, 32, 70, 195, 60, 104, 109, 184, 188, 121, 57, 40, 61, 192, 190, 0, 61, 148, 157, 1, 61, 106, 89, 32, 187, 186, 59, 160, 188, 37, 56, 86, 59, 98, 29, 117, 188, 239, 16, 189, 60, 41, 56, 23, 188, 78, 175, 226, 60, 187, 144, 187, 188, 141, 44, 236, 59, 83, 65, 11, 189, 183, 38, 23, 187, 239, 240, 162, 60, 126, 211, 18, 189, 120, 48, 162, 60, 205, 250, 34, 189, 252, 45, 46, 61, 155, 204, 27, 188, 123, 208, 239, 188, 81, 92, 10, 61, 173, 48, 245, 188, 178, 98, 129, 188, 137, 225, 31, 57, 44, 69, 130, 187, 108, 169, 99, 60, 180, 208, 13, 61, 92, 199, 12, 61, 32, 55, 13, 189, 48, 128, 153, 60, 119, 255, 167, 187, 133, 231, 247, 58, 14, 15, 1, 61, 10, 68, 249, 60, 21, 198, 190, 59, 137, 128, 199, 60, 107, 109, 48, 187, 213, 26, 83, 188, 240, 217, 196, 60, 96, 74, 44, 189, 9, 209, 162, 58, 216, 107, 167, 60, 171, 165, 107, 188, 95, 11, 159, 60, 185, 42, 253, 59, 185, 212, 11, 61, 148, 38, 18, 189, 19, 107, 54, 188, 231, 94, 233, 60, 34, 115, 2, 188, 4, 247, 147, 60, 86, 10, 45, 189, 218, 29, 37, 189, 130, 77, 62, 188, 254, 25, 238, 187, 101, 160, 210, 60, 118, 108, 22, 61, 210, 1, 128, 60, 16, 50, 51, 187, 62, 75, 13, 188, 224, 52, 137, 59, 5, 100, 57, 186, 36, 211, 135, 188, 199, 138, 96, 188, 227, 59, 3, 189, 92, 36, 26, 61, 195, 152, 10, 189, 241, 73, 219, 188, 12, 225, 17, 188, 163, 106, 247, 60, 31, 49, 192, 188, 168, 127, 39, 188, 28, 123, 179, 188, 35, 170, 0, 189, 10, 129, 213, 60, 114, 49, 29, 61, 116, 12, 81, 188, 43, 251, 21, 61, 83, 70, 253, 60, 220, 46, 175, 59, 46, 117, 105, 60, 227, 243, 235, 60, 50, 26, 144, 60, 22, 224, 142, 58, 191, 150, 208, 60, 23, 239, 126, 60, 141, 131, 253, 184, 65, 192, 27, 60, 137, 150, 227, 60, 226, 96, 21, 61, 237, 173, 192, 60, 129, 69, 89, 60, 215, 179, 46, 61, 130, 161, 137, 60, 50, 105, 137, 187, 111, 84, 99, 60, 240, 225, 129, 59, 243, 107, 18, 189, 116, 223, 145, 58, 129, 211, 191, 60, 104, 155, 243, 60, 136, 202, 238, 188, 23, 101, 22, 61, 55, 36, 217, 60, 80, 239, 150, 60, 165, 8, 214, 60, 48, 135, 41, 61, 163, 61, 93, 60, 113, 138, 56, 59, 55, 139, 7, 59, 98, 182, 238, 59, 95, 83, 186, 187, 254, 191, 4, 189, 234, 50, 184, 60, 158, 47, 178, 188, 178, 226, 200, 59, 99, 73, 190, 188, 102, 87, 17, 57, 59, 254, 46, 189, 27, 173, 173, 60, 67, 248, 25, 60, 238, 174, 112, 60, 103, 178, 222, 188, 248, 99, 5, 61, 162, 226, 13, 61, 129, 200, 15, 188, 168, 110, 68, 60, 251, 43, 38, 189, 22, 156, 196, 58, 172, 25, 12, 189, 255, 96, 175, 60, 250, 114, 195, 188, 130, 167, 137, 58, 6, 50, 86, 59, 112, 13, 118, 188, 135, 197, 131, 188, 117, 145, 26, 189, 6, 6, 161, 60, 233, 249, 239, 188, 207, 128, 209, 59, 251, 197, 43, 61, 96, 107, 188, 60, 252, 153, 162, 188, 120, 71, 85, 60, 245, 11, 234, 60, 112, 198, 94, 60, 12, 231, 48, 188, 213, 82, 17, 61, 1, 243, 70, 188, 222, 206, 11, 61, 42, 109, 28, 59, 154, 225, 93, 186, 89, 15, 236, 187, 221, 180, 34, 188, 52, 194, 242, 60, 180, 252, 43, 61, 217, 128, 178, 60, 164, 175, 40, 189, 229, 32, 12, 189, 177, 151, 120, 188, 69, 25, 43, 189, 181, 125, 58, 188, 36, 10, 139, 187, 108, 76, 138, 60, 23, 228, 163, 188, 56, 171, 196, 188, 166, 198, 196, 60, 143, 27, 242, 188, 147, 106, 11, 61, 41, 108, 203, 60, 193, 190, 224, 188, 66, 218, 21, 188, 1, 70, 102, 188, 214, 96, 206, 187, 50, 7, 132, 187, 164, 109, 27, 61, 181, 91, 69, 60, 99, 96, 82, 59, 175, 247, 14, 188, 185, 202, 114, 188, 131, 96, 202, 60, 157, 35, 37, 187, 140, 251, 6, 61, 177, 23, 162, 187, 106, 183, 190, 188, 29, 17, 46, 61, 0, 246, 29, 189, 87, 69, 35, 189, 140, 155, 177, 187, 232, 32, 23, 187, 118, 141, 209, 187, 217, 157, 43, 189, 169, 64, 230, 188, 105, 47, 158, 59, 121, 205, 183, 187, 214, 203, 151, 60, 245, 54, 23, 59, 2, 166, 231, 188, 16, 95, 221, 60, 196, 74, 28, 61, 150, 62, 149, 187, 27, 26, 153, 60, 33, 54, 131, 60, 114, 239, 0, 61, 65, 107, 142, 60, 239, 197, 177, 187, 107, 244, 94, 60, 137, 165, 5, 189, 44, 188, 242, 60, 169, 96, 16, 60, 98, 224, 61, 59, 235, 129, 196, 60, 175, 182, 14, 189, 5, 139, 35, 60, 17, 50, 30, 187, 23, 45, 98, 188, 97, 72, 193, 60, 177, 186, 197, 59, 176, 4, 80, 188, 39, 51, 20, 189, 208, 55, 181, 60, 149, 190, 41, 61, 217, 30, 140, 59, 1, 97, 30, 61, 194, 250, 36, 59, 220, 142, 209, 60, 98, 119, 28, 61, 89, 13, 145, 188, 58, 0, 199, 188, 170, 110, 246, 188, 10, 75, 186, 60, 190, 140, 5, 189, 33, 198, 120, 60, 179, 199, 42, 61, 33, 151, 201, 188, 115, 2, 160, 60, 120, 1, 70, 187, 248, 149, 195, 188, 54, 148, 80, 60, 201, 109, 98, 60, 195, 86, 101, 188, 48, 46, 182, 188, 181, 53, 18, 189, 129, 2, 189, 60, 210, 226, 39, 189, 104, 70, 0, 61, 214, 253, 42, 61, 78, 33, 14, 61, 4, 213, 210, 55, 20, 124, 50, 188, 122, 205, 253, 60, 102, 42, 102, 188, 96, 21, 247, 188, 42, 126, 154, 187, 160, 210, 255, 60, 199, 8, 44, 60, 223, 209, 5, 188, 188, 159, 64, 60, 161, 41, 167, 60, 94, 10, 204, 188, 179, 67, 9, 61, 37, 124, 182, 186, 76, 58, 170, 188, 171, 101, 141, 60, 167, 34, 38, 61, 110, 137, 189, 188, 67, 90, 114, 188, 169, 94, 160, 59, 79, 82, 30, 61, 183, 167, 247, 60, 46, 74, 66, 188, 243, 59, 29, 61, 209, 69, 42, 60, 154, 38, 145, 188, 236, 18, 228, 188, 76, 84, 143, 60, 56, 154, 194, 59, 51, 43, 62, 188, 227, 12, 8, 61, 14, 253, 127, 188, 239, 249, 187, 60, 15, 77, 205, 60, 100, 65, 44, 59, 231, 252, 63, 188, 212, 233, 38, 61, 139, 238, 204, 60, 144, 97, 90, 60, 133, 214, 22, 189, 21, 48, 8, 61, 110, 153, 105, 60, 253, 140, 45, 189, 213, 250, 8, 61, 229, 203, 3, 189, 93, 23, 20, 61, 236, 152, 205, 188, 209, 89, 26, 61, 11, 40, 146, 188, 186, 96, 211, 187, 70, 215, 74, 60, 149, 49, 149, 60, 41, 2, 165, 188, 16, 180, 42, 61, 210, 240, 36, 189, 36, 198, 252, 60, 9, 7, 243, 188, 54, 241, 210, 188, 32, 129, 221, 188, 214, 2, 51, 58, 67, 227, 239, 188, 121, 147, 245, 59, 29, 197, 12, 189, 35, 237, 129, 188, 69, 125, 22, 189, 244, 149, 201, 188, 233, 248, 19, 189, 11, 37, 112, 188, 218, 249, 37, 189, 79, 112, 217, 188, 110, 163, 215, 59, 20, 34, 130, 60, 246, 144, 69, 59, 160, 244, 243, 60, 136, 125, 201, 188, 175, 14, 208, 188, 199, 145, 152, 60, 78, 233, 243, 60, 35, 129, 9, 61, 192, 240, 137, 188, 134, 207, 158, 188, 207, 206, 89, 59, 181, 88, 179, 60, 58, 100, 185, 188, 176, 151, 155, 188, 104, 205, 214, 60, 76, 6, 28, 188, 233, 253, 210, 60, 57, 244, 101, 60, 140, 70, 0, 189, 124, 156, 167, 59, 191, 29, 171, 60, 194, 252, 1, 61, 102, 109, 255, 188, 78, 39, 176, 188, 116, 101, 10, 189, 101, 5, 233, 59, 45, 221, 251, 60, 104, 41, 34, 61, 243, 207, 149, 59, 34, 187, 0, 189, 70, 186, 159, 60, 219, 166, 60, 58, 72, 95, 232, 60, 196, 103, 79, 187, 240, 128, 185, 60, 75, 33, 82, 188, 147, 75, 189, 60, 77, 117, 86, 60, 181, 204, 108, 60, 41, 193, 99, 187, 241, 44, 6, 61, 139, 51, 224, 188, 37, 37, 165, 187, 188, 13, 217, 188, 216, 149, 100, 188, 204, 84, 132, 188, 93, 205, 241, 188, 245, 151, 156, 59, 130, 186, 47, 59, 180, 56, 131, 185, 179, 237, 246, 60, 88, 151, 4, 61, 213, 30, 208, 59, 198, 15, 178, 187, 39, 177, 19, 189, 212, 62, 4, 61, 110, 37, 25, 189, 57, 124, 53, 60, 78, 160, 0, 61, 247, 135, 38, 189, 70, 61, 6, 61, 95, 181, 24, 189, 233, 152, 193, 187, 83, 182, 188, 60, 90, 181, 36, 61, 143, 239, 0, 189, 117, 22, 34, 189, 165, 174, 215, 187, 127, 170, 226, 60, 216, 41, 84, 58, 186, 193, 176, 188, 190, 70, 34, 61, 112, 216, 180, 60, 46, 56, 32, 189, 191, 31, 32, 189, 146, 38, 171, 60, 123, 130, 13, 188, 75, 150, 245, 60, 49, 253, 118, 188, 115, 147, 9, 189, 116, 164, 236, 60, 42, 24, 27, 188, 154, 30, 14, 61, 168, 77, 155, 188, 186, 229, 43, 189, 169, 175, 19, 59, 5, 12, 182, 60, 225, 148, 222, 188, 214, 227, 142, 186, 56, 155, 183, 187, 106, 208, 33, 59, 217, 18, 17, 61, 93, 174, 29, 189, 45, 74, 252, 188, 150, 95, 153, 188, 28, 91, 209, 187, 154, 234, 17, 61, 128, 114, 82, 187, 23, 174, 220, 60, 201, 79, 131, 60, 80, 170, 215, 188, 115, 217, 134, 188, 137, 21, 233, 60, 4, 62, 211, 188, 6, 222, 1, 189, 148, 36, 187, 187, 244, 2, 8, 61, 11, 91, 46, 188, 0, 170, 159, 59, 191, 100, 187, 188, 72, 165, 252, 60, 151, 30, 25, 59, 224, 110, 45, 189, 177, 30, 137, 188, 72, 165, 254, 187, 178, 188, 30, 61, 166, 233, 41, 61, 243, 85, 245, 60, 26, 123, 5, 187, 151, 130, 162, 188, 211, 136, 182, 187, 10, 158, 224, 60, 52, 80, 120, 188, 250, 96, 10, 188, 210, 241, 189, 60, 94, 175, 86, 188, 135, 121, 51, 187, 127, 144, 241, 188, 70, 64, 43, 61, 180, 166, 176, 187, 35, 2, 194, 188, 40, 23, 32, 189, 34, 13, 42, 189, 149, 83, 169, 188, 174, 125, 214, 60, 147, 34, 137, 58, 233, 72, 226, 186, 62, 224, 234, 60, 43, 58, 11, 61, 166, 42, 95, 188, 95, 231, 96, 60, 1, 112, 176, 60, 72, 135, 252, 60, 111, 202, 210, 188, 92, 67, 25, 189, 187, 126, 211, 188, 99, 9, 224, 187, 165, 118, 24, 61, 230, 55, 32, 189, 199, 179, 145, 188, 123, 222, 0, 189, 181, 137, 30, 60, 25, 162, 251, 60, 102, 171, 191, 188, 5, 204, 103, 187, 195, 94, 221, 187, 230, 128, 18, 189, 169, 235, 210, 59, 23, 19, 150, 60, 22, 242, 53, 59, 123, 120, 224, 60, 113, 142, 184, 59, 109, 230, 133, 59, 126, 9, 29, 189, 241, 238, 190, 188, 10, 170, 76, 60, 233, 166, 3, 61, 164, 241, 247, 187, 103, 235, 173, 60, 104, 68, 17, 189, 174, 122, 210, 188, 216, 7, 169, 188, 183, 120, 255, 60, 105, 62, 194, 60, 102, 184, 97, 188, 6, 233, 245, 57, 173, 31, 137, 188, 198, 0, 14, 61, 246, 196, 41, 61, 51, 158, 23, 61, 96, 155, 7, 61, 87, 107, 194, 188, 81, 3, 25, 61, 200, 111, 221, 186, 171, 51, 52, 188, 216, 212, 215, 59, 120, 44, 149, 59, 12, 220, 70, 187, 112, 115, 250, 60, 95, 176, 173, 60, 119, 84, 165, 187, 23, 117, 243, 59, 3, 202, 34, 189, 90, 161, 140, 60, 148, 9, 18, 61, 111, 95, 25, 189, 107, 66, 191, 60, 154, 66, 133, 59, 31, 145, 230, 60, 25, 107, 153, 188, 99, 179, 133, 60, 94, 56, 231, 60, 208, 42, 157, 60, 16, 53, 88, 60, 97, 12, 212, 188, 144, 243, 124, 60, 226, 74, 19, 188, 109, 100, 156, 188, 128, 247, 46, 61, 47, 185, 148, 187, 47, 6, 212, 188, 234, 47, 46, 61, 199, 28, 30, 189, 247, 220, 129, 188, 62, 36, 143, 59, 63, 184, 91, 188, 240, 15, 128, 188, 85, 241, 217, 60, 236, 79, 198, 60, 233, 231, 16, 61, 125, 251, 210, 60, 117, 39, 19, 61, 241, 245, 13, 189, 31, 242, 28, 189, 187, 46, 23, 61, 38, 175, 169, 188, 177, 202, 161, 60, 201, 78, 8, 61, 177, 167, 159, 187, 230, 73, 248, 188, 184, 207, 5, 61, 31, 176, 129, 188, 217, 184, 145, 59, 102, 42, 243, 60, 38, 31, 110, 187, 30, 234, 35, 61, 6, 148, 6, 186, 7, 112, 178, 60, 49, 198, 168, 188, 209, 2, 205, 60, 206, 152, 214, 188, 126, 36, 190, 188, 207, 64, 51, 60, 127, 129, 113, 60, 195, 189, 244, 60, 115, 203, 106, 187, 31, 177, 144, 60, 226, 154, 9, 61, 165, 200, 247, 188, 61, 106, 234, 60, 85, 68, 212, 57, 76, 118, 11, 189, 149, 137, 149, 188, 146, 171, 70, 57, 227, 41, 174, 60, 38, 131, 40, 188, 200, 224, 100, 60, 65, 6, 22, 61, 86, 227, 16, 189, 81, 107, 61, 59, 139, 255, 46, 61, 157, 98, 248, 187, 250, 144, 30, 189, 227, 190, 217, 60, 191, 227, 99, 188, 252, 225, 30, 189, 235, 135, 28, 189, 248, 184, 13, 188, 249, 1, 176, 58, 38, 133, 204, 188, 22, 200, 251, 188, 245, 50, 223, 188, 116, 189, 86, 187, 243, 37, 8, 188, 160, 113, 224, 60, 100, 108, 42, 60, 44, 188, 222, 60, 29, 149, 219, 59, 232, 113, 40, 61, 195, 140, 85, 60, 241, 39, 156, 60, 78, 41, 171, 188, 194, 34, 159, 60, 53, 148, 68, 188, 7, 181, 201, 59, 164, 198, 15, 189, 81, 196, 219, 60, 134, 98, 9, 189, 49, 119, 153, 60, 232, 223, 37, 61, 167, 234, 43, 60, 71, 211, 101, 188, 26, 120, 30, 189, 154, 20, 213, 58, 12, 78, 32, 61, 239, 194, 8, 60, 142, 57, 215, 60, 104, 243, 165, 188, 249, 193, 89, 60, 218, 140, 172, 59, 191, 56, 200, 186, 228, 62, 245, 187, 215, 70, 75, 60, 66, 24, 168, 60, 44, 249, 27, 61, 163, 249, 234, 60, 108, 70, 43, 189, 83, 159, 249, 188, 142, 39, 197, 60, 194, 243, 105, 60, 181, 157, 17, 60, 73, 118, 36, 189, 232, 1, 138, 60, 195, 175, 188, 60, 59, 175, 19, 189, 71, 74, 164, 60, 147, 15, 200, 60, 39, 94, 14, 188, 190, 139, 14, 61, 230, 125, 43, 61, 228, 176, 255, 188, 77, 245, 253, 60, 56, 153, 63, 188, 160, 239, 192, 188, 9, 64, 34, 61, 221, 58, 42, 61, 3, 44, 12, 188, 37, 81, 194, 188, 176, 165, 194, 60, 233, 183, 237, 60, 127, 86, 168, 188, 0, 50, 111, 188, 223, 71, 91, 60, 242, 74, 180, 60, 118, 122, 19, 189, 221, 148, 16, 189, 154, 195, 187, 60, 175, 0, 179, 187, 149, 125, 165, 188, 149, 126, 77, 188, 13, 106, 149, 188, 19, 38, 39, 189, 145, 94, 181, 188, 46, 214, 68, 188, 128, 186, 63, 188, 60, 143, 19, 189, 167, 203, 53, 188, 37, 13, 30, 59, 67, 212, 83, 59, 7, 70, 238, 60, 97, 227, 209, 60, 59, 162, 199, 59, 80, 31, 172, 188, 231, 82, 99, 55, 56, 59, 170, 60, 239, 234, 119, 188, 15, 58, 5, 188, 108, 76, 126, 188, 69, 198, 148, 188, 25, 220, 2, 189, 44, 25, 210, 187, 70, 179, 41, 189, 190, 207, 242, 60, 13, 235, 217, 188, 143, 199, 85, 60, 237, 216, 35, 189, 75, 253, 139, 60, 199, 65, 82, 59, 187, 175, 79, 187, 1, 67, 183, 60, 203, 92, 173, 188, 6, 138, 115, 188, 165, 171, 181, 60, 37, 208, 197, 188, 117, 157, 21, 61, 162, 243, 210, 60, 84, 83, 140, 60, 95, 84, 8, 189, 144, 138, 78, 185, 81, 139, 163, 58, 42, 9, 31, 189, 212, 171, 36, 188, 1, 164, 148, 188, 250, 123, 159, 188, 30, 59, 74, 186, 14, 193, 83, 60, 227, 115, 46, 189, 232, 169, 180, 188, 22, 63, 46, 189, 153, 171, 153, 60, 88, 62, 49, 60, 239, 97, 228, 60, 81, 30, 157, 188, 114, 103, 7, 61, 244, 207, 103, 187, 67, 204, 84, 59, 104, 68, 116, 60, 77, 25, 86, 188, 118, 53, 69, 60, 235, 98, 168, 187, 73, 205, 139, 60, 208, 14, 14, 61, 125, 141, 252, 187, 197, 217, 132, 60, 181, 215, 185, 188, 90, 244, 64, 60, 196, 115, 40, 189, 155, 250, 7, 189, 74, 250, 47, 60, 109, 197, 148, 59, 89, 220, 100, 60, 211, 177, 63, 60, 241, 46, 10, 61, 12, 78, 4, 61, 41, 144, 41, 189, 108, 238, 174, 187, 66, 167, 201, 188, 219, 176, 147, 60, 101, 9, 45, 189, 138, 224, 0, 61, 112, 64, 6, 61, 169, 232, 13, 61, 107, 48, 194, 60, 74, 143, 43, 61, 143, 183, 232, 187, 139, 204, 32, 189, 96, 108, 21, 187, 181, 124, 0, 61, 174, 193, 88, 60, 56, 36, 239, 188, 201, 255, 251, 60, 146, 122, 16, 187, 174, 82, 91, 58, 104, 54, 158, 188, 221, 173, 147, 60, 100, 145, 10, 60, 164, 61, 152, 58, 42, 86, 174, 60, 115, 45, 22, 189, 251, 59, 35, 187, 83, 231, 17, 59, 229, 247, 203, 184, 51, 32, 249, 60, 67, 68, 207, 60, 222, 145, 224, 188, 217, 234, 20, 189, 7, 145, 94, 60, 249, 139, 170, 188, 250, 226, 137, 186, 192, 74, 68, 60, 112, 202, 21, 189, 249, 109, 137, 59, 136, 217, 152, 187, 204, 141, 37, 61, 221, 149, 188, 57, 238, 212, 31, 189, 250, 228, 51, 184, 227, 133, 11, 61, 124, 74, 44, 61, 198, 231, 35, 61, 192, 59, 36, 61, 83, 249, 244, 60, 163, 58, 3, 61, 179, 200, 29, 61, 101, 11, 219, 60, 198, 206, 227, 60, 169, 235, 61, 60, 170, 96, 156, 188, 13, 20, 176, 60, 226, 182, 28, 61, 136, 167, 10, 61, 46, 173, 19, 61, 66, 32, 120, 60, 106, 77, 141, 186, 109, 169, 177, 60, 192, 226, 218, 188, 119, 201, 116, 60, 187, 211, 10, 186, 32, 221, 213, 57, 131, 95, 170, 60, 108, 213, 71, 187, 208, 155, 39, 189, 28, 211, 7, 189, 217, 212, 221, 60, 216, 171, 150, 188, 216, 225, 26, 189, 94, 186, 171, 188, 125, 140, 124, 60, 14, 94, 94, 188, 114, 149, 74, 187, 234, 112, 59, 188, 171, 200, 236, 60, 211, 245, 19, 61, 10, 206, 3, 61, 142, 127, 33, 189, 164, 61, 43, 189, 225, 89, 215, 188, 244, 122, 190, 188, 254, 5, 166, 60, 158, 157, 133, 187, 240, 109, 250, 188, 79, 62, 1, 189, 209, 168, 164, 188, 45, 138, 232, 59, 238, 33, 111, 188, 149, 169, 37, 189, 233, 40, 36, 188, 184, 142, 6, 61, 86, 235, 227, 60, 10, 38, 207, 60, 155, 110, 105, 188, 30, 99, 250, 60, 92, 142, 125, 187, 202, 159, 109, 188, 10, 223, 203, 188, 146, 134, 98, 188, 46, 166, 24, 189, 182, 206, 229, 59, 242, 225, 240, 188, 140, 229, 20, 189, 49, 50, 29, 59, 80, 237, 182, 188, 98, 112, 235, 188, 185, 251, 208, 188, 221, 56, 170, 188, 109, 81, 206, 188, 156, 169, 46, 61, 218, 76, 142, 188, 168, 113, 221, 57, 147, 151, 214, 60, 55, 70, 31, 189, 2, 128, 5, 60, 179, 179, 154, 58, 106, 168, 238, 60, 106, 215, 181, 59, 136, 117, 187, 60, 100, 16, 94, 59, 216, 97, 12, 59, 9, 165, 172, 188, 105, 20, 233, 188, 185, 233, 223, 60, 21, 65, 84, 186, 125, 33, 113, 188, 62, 100, 176, 60, 219, 83, 225, 188, 23, 64, 29, 60, 198, 238, 112, 60, 98, 228, 207, 60, 111, 114, 134, 188, 235, 8, 96, 60, 5, 180, 163, 188, 125, 187, 176, 188, 36, 196, 210, 60, 44, 72, 66, 188, 53, 141, 26, 61, 6, 204, 180, 60, 138, 109, 227, 60, 250, 195, 145, 60, 168, 241, 229, 188, 63, 121, 198, 188, 246, 18, 7, 186, 73, 209, 4, 61, 129, 120, 29, 61, 105, 69, 219, 188, 228, 225, 42, 61, 75, 155, 8, 189, 120, 164, 161, 60, 87, 118, 38, 61, 254, 109, 86, 59, 179, 81, 200, 188, 235, 6, 141, 60, 144, 245, 31, 61, 74, 116, 221, 188, 18, 123, 199, 60, 100, 97, 33, 189, 242, 208, 31, 189, 29, 4, 27, 189, 133, 64, 33, 61, 107, 208, 237, 188, 49, 120, 239, 187, 239, 111, 129, 57, 222, 35, 153, 60, 21, 37, 68, 59, 73, 7, 110, 188, 116, 2, 200, 60, 85, 89, 148, 188, 222, 171, 3, 188, 4, 142, 148, 188, 223, 96, 39, 61, 190, 212, 6, 186, 250, 236, 240, 187, 244, 204, 148, 184, 78, 198, 238, 60, 115, 118, 38, 189, 11, 232, 23, 188, 8, 186, 168, 188, 23, 124, 20, 60, 79, 3, 147, 60, 232, 225, 32, 189, 66, 46, 39, 60, 36, 165, 165, 187, 19, 35, 1, 189, 168, 150, 228, 60, 15, 210, 196, 188, 36, 43, 183, 60, 88, 158, 255, 188, 23, 219, 26, 61, 209, 54, 75, 60, 231, 176, 193, 60, 185, 117, 237, 60, 35, 47, 90, 60, 216, 193, 5, 61, 64, 169, 66, 188, 109, 238, 13, 188, 167, 184, 16, 61, 194, 137, 132, 188, 37, 132, 170, 59, 72, 233, 138, 60, 60, 82, 42, 189, 235, 204, 33, 189, 157, 153, 239, 59, 160, 145, 13, 189, 46, 235, 201, 60, 153, 189, 186, 186, 209, 0, 14, 189, 114, 226, 213, 60, 110, 4, 190, 59, 195, 2, 228, 60, 141, 69, 115, 59, 91, 79, 28, 189, 17, 150, 49, 188, 117, 128, 209, 60, 41, 1, 53, 60, 63, 252, 35, 188, 97, 118, 23, 188, 209, 213, 32, 189, 184, 230, 173, 60, 182, 158, 207, 188, 204, 78, 41, 60, 142, 214, 4, 61, 234, 79, 220, 188, 24, 69, 237, 60, 193, 98, 44, 61, 37, 10, 186, 188, 116, 28, 46, 189, 76, 156, 39, 59, 104, 248, 207, 60, 186, 119, 38, 189, 95, 10, 249, 188, 84, 168, 147, 188, 245, 236, 167, 188, 242, 255, 221, 188, 27, 113, 5, 61, 59, 166, 222, 60, 235, 113, 235, 188, 178, 8, 207, 60, 73, 87, 17, 61, 134, 4, 40, 189, 52, 138, 167, 60, 11, 248, 237, 58, 79, 54, 222, 58, 138, 190, 99, 60, 200, 74, 18, 61, 3, 117, 144, 185, 255, 226, 39, 188, 152, 50, 12, 189, 217, 76, 159, 188, 249, 159, 189, 60, 82, 87, 231, 188, 165, 109, 20, 60, 117, 179, 238, 60, 81, 152, 231, 60, 145, 201, 153, 58, 75, 127, 198, 188, 56, 96, 13, 60, 116, 231, 228, 59, 158, 112, 37, 61, 177, 213, 247, 60, 106, 250, 25, 61, 68, 220, 70, 60, 243, 156, 210, 59, 48, 224, 223, 59, 212, 229, 207, 187, 125, 209, 185, 188, 180, 249, 19, 189, 62, 188, 24, 61, 128, 199, 228, 187, 125, 12, 125, 59, 113, 213, 160, 188, 53, 68, 193, 60, 130, 235, 19, 189, 16, 57, 17, 189, 3, 33, 126, 188, 119, 131, 165, 60, 139, 230, 0, 61, 140, 185, 3, 188, 33, 102, 241, 188, 22, 229, 34, 189, 132, 63, 46, 61, 241, 186, 0, 61, 62, 110, 13, 188, 173, 130, 187, 188, 219, 121, 174, 187, 218, 222, 77, 60, 113, 138, 15, 187, 161, 205, 178, 188, 88, 0, 45, 61, 233, 34, 116, 60, 237, 226, 204, 60, 234, 197, 15, 189, 147, 11, 205, 60, 209, 201, 214, 188, 250, 25, 17, 60, 143, 29, 129, 60, 128, 184, 178, 58, 201, 118, 49, 188, 80, 173, 41, 60, 97, 54, 177, 188, 66, 150, 184, 60, 72, 87, 30, 188, 81, 228, 14, 61, 74, 181, 1, 60, 141, 187, 29, 189, 236, 140, 43, 61, 144, 1, 101, 60, 247, 212, 5, 189, 253, 112, 19, 60, 47, 36, 129, 60, 96, 134, 14, 189, 187, 197, 213, 187, 73, 163, 22, 189, 24, 67, 169, 60, 247, 92, 9, 60, 55, 59, 2, 189, 167, 234, 136, 188, 144, 36, 152, 188, 53, 69, 175, 188, 129, 214, 11, 61, 8, 228, 146, 188, 194, 51, 158, 60, 85, 189, 23, 61, 47, 161, 235, 59, 177, 179, 40, 61, 85, 76, 180, 188, 25, 136, 19, 61, 147, 179, 237, 184, 23, 51, 25, 61, 236, 62, 225, 59, 58, 120, 42, 60, 255, 221, 18, 189, 203, 234, 58, 60, 135, 124, 230, 188, 132, 218, 75, 60, 225, 147, 42, 189, 193, 180, 133, 60, 138, 85, 147, 60, 202, 11, 17, 61, 162, 87, 194, 60, 176, 96, 13, 188, 196, 247, 225, 59, 120, 102, 210, 60, 171, 171, 194, 60, 101, 161, 225, 60, 180, 233, 7, 61, 246, 158, 107, 188, 45, 13, 41, 59, 108, 28, 228, 60, 185, 196, 250, 188, 108, 141, 1, 189, 195, 106, 8, 61, 3, 180, 10, 189, 97, 111, 147, 58, 220, 76, 133, 188, 215, 110, 213, 188, 223, 138, 38, 59, 182, 20, 69, 59, 32, 18, 185, 59, 251, 229, 252, 60, 222, 27, 241, 60, 182, 99, 72, 60, 107, 240, 105, 60, 195, 201, 139, 188, 68, 123, 33, 61, 50, 194, 46, 60, 13, 120, 64, 59, 78, 64, 52, 59, 127, 2, 76, 60, 41, 227, 123, 188, 71, 207, 15, 61, 250, 189, 37, 61, 245, 183, 111, 188, 162, 69, 15, 61, 215, 185, 156, 188, 138, 27, 233, 59, 87, 70, 209, 58, 176, 183, 66, 60, 244, 25, 44, 61, 206, 250, 219, 60, 250, 63, 5, 189, 197, 52, 128, 188, 6, 211, 239, 188, 55, 30, 146, 188, 149, 197, 245, 60, 165, 67, 46, 61, 149, 240, 102, 60, 219, 58, 93, 188, 111, 57, 57, 188, 72, 93, 14, 189, 183, 149, 143, 188, 218, 235, 175, 60, 199, 179, 0, 186, 61, 116, 38, 61, 104, 110, 207, 188, 33, 15, 41, 188, 187, 51, 5, 188, 215, 75, 147, 188, 13, 154, 208, 59, 137, 139, 200, 188, 7, 17, 145, 60, 189, 125, 43, 60, 5, 159, 194, 188, 121, 145, 227, 188, 223, 97, 37, 189, 43, 247, 122, 188, 170, 168, 253, 188, 140, 133, 28, 189, 37, 162, 228, 187, 200, 198, 163, 60, 166, 164, 0, 61, 125, 246, 18, 60, 43, 104, 135, 186, 178, 218, 156, 60, 110, 85, 7, 60, 238, 224, 231, 188, 218, 157, 245, 60, 92, 154, 60, 60, 230, 64, 26, 60, 20, 165, 16, 61, 191, 93, 41, 61, 113, 216, 192, 59, 183, 9, 65, 60, 111, 41, 213, 59, 85, 58, 146, 60, 112, 128, 145, 60, 139, 194, 19, 61, 121, 33, 150, 59, 154, 64, 209, 60, 189, 9, 16, 61, 172, 199, 223, 59, 198, 245, 46, 61, 143, 108, 16, 189, 139, 47, 210, 188, 208, 222, 244, 187, 137, 43, 178, 188, 121, 80, 40, 189, 47, 248, 255, 188, 24, 131, 221, 188, 96, 183, 16, 189, 91, 178, 57, 60, 97, 116, 2, 188, 210, 33, 159, 188, 4, 109, 166, 188, 128, 117, 186, 188, 72, 29, 123, 60, 165, 253, 20, 61, 201, 22, 185, 60, 246, 224, 176, 188, 142, 60, 154, 188, 59, 233, 141, 188, 4, 115, 67, 188, 63, 217, 244, 60, 78, 34, 5, 60, 194, 192, 21, 189, 104, 54, 39, 189, 116, 104, 105, 60, 178, 2, 11, 61, 156, 37, 173, 188, 194, 198, 186, 60, 91, 133, 149, 188, 206, 57, 22, 188, 51, 251, 19, 189, 65, 95, 181, 59, 41, 234, 19, 189, 238, 75, 159, 60, 214, 186, 19, 61, 82, 176, 64, 60, 179, 96, 210, 186, 38, 156, 199, 60, 212, 73, 41, 61, 218, 169, 7, 61, 85, 221, 157, 60, 2, 229, 189, 59, 122, 36, 245, 60, 39, 53, 46, 61, 75, 247, 15, 60, 90, 198, 55, 59, 10, 58, 7, 61, 71, 9, 138, 60, 101, 188, 0, 189, 59, 129, 207, 188, 112, 208, 7, 189, 146, 21, 8, 189, 226, 70, 25, 58, 219, 111, 38, 189, 96, 44, 2, 189, 68, 247, 34, 188, 1, 245, 137, 188, 84, 96, 133, 60, 80, 46, 141, 188, 22, 55, 244, 59, 80, 12, 238, 187, 158, 181, 139, 58, 130, 123, 230, 60, 74, 33, 235, 188, 9, 11, 57, 188, 155, 11, 3, 61, 188, 0, 136, 60, 61, 234, 32, 189, 239, 230, 16, 189, 255, 105, 172, 59, 253, 57, 96, 59, 18, 118, 231, 60, 77, 171, 171, 60, 210, 71, 34, 61, 151, 96, 41, 61, 159, 135, 250, 188, 255, 169, 211, 60, 144, 200, 38, 189, 188, 24, 176, 188, 212, 79, 190, 59, 209, 74, 217, 188, 112, 195, 145, 187, 238, 94, 214, 60, 193, 201, 237, 59, 237, 212, 25, 189, 184, 192, 38, 189, 204, 52, 204, 188, 255, 91, 32, 61, 7, 230, 2, 188, 88, 249, 250, 188, 137, 249, 188, 188, 0, 219, 40, 189, 238, 223, 187, 188, 79, 144, 58, 187, 165, 66, 154, 188, 154, 64, 209, 60, 233, 149, 230, 188, 185, 109, 71, 60, 36, 208, 150, 188, 79, 206, 170, 188, 194, 132, 173, 187, 90, 71, 197, 60, 20, 161, 232, 60, 3, 104, 227, 60, 88, 229, 223, 59, 174, 65, 15, 189, 127, 5, 233, 60, 229, 20, 241, 187, 167, 183, 25, 188, 110, 179, 90, 188, 238, 22, 9, 189, 136, 164, 173, 60, 69, 74, 77, 60, 69, 183, 231, 188, 253, 34, 79, 188, 24, 139, 240, 60, 193, 200, 127, 188, 200, 138, 25, 61, 114, 3, 14, 189, 67, 245, 240, 60, 230, 50, 158, 60, 113, 223, 128, 187, 194, 214, 34, 189, 56, 18, 31, 188, 242, 6, 14, 188, 144, 101, 67, 188, 156, 139, 160, 187, 161, 61, 13, 61, 144, 224, 1, 189, 0, 53, 15, 60, 243, 104, 156, 60, 234, 148, 33, 189, 231, 238, 36, 61, 233, 92, 16, 189, 196, 235, 80, 188, 56, 225, 12, 189, 15, 111, 139, 187, 67, 144, 156, 188, 85, 145, 23, 61, 108, 175, 122, 188, 183, 237, 223, 59, 210, 60, 184, 188, 159, 164, 169, 60, 250, 221, 250, 60, 109, 104, 248, 187, 36, 170, 166, 188, 173, 1, 53, 60, 127, 145, 134, 60, 135, 149, 46, 189, 177, 43, 177, 60, 51, 171, 45, 189, 14, 35, 15, 188, 109, 145, 61, 59, 204, 200, 123, 188, 162, 94, 243, 188, 7, 202, 189, 60, 200, 98, 18, 61, 60, 122, 177, 188, 139, 202, 214, 188, 235, 74, 49, 188, 70, 3, 229, 188, 153, 139, 14, 189, 63, 238, 251, 60, 231, 169, 161, 187, 175, 89, 29, 61, 130, 67, 143, 188, 116, 76, 21, 59, 231, 165, 38, 61, 170, 90, 170, 188, 182, 188, 180, 187, 97, 67, 133, 59, 248, 122, 199, 57, 191, 83, 37, 188, 130, 246, 43, 189, 255, 214, 140, 188, 188, 187, 88, 188, 93, 90, 170, 188, 223, 0, 56, 60, 79, 134, 86, 60, 57, 146, 99, 188, 165, 44, 67, 188, 173, 214, 179, 60, 83, 228, 149, 60, 18, 88, 58, 188, 126, 25, 46, 189, 48, 170, 181, 59, 167, 194, 198, 188, 174, 234, 180, 60, 251, 21, 23, 189, 4, 192, 203, 59, 201, 214, 187, 188, 95, 119, 24, 189, 104, 223, 231, 60, 162, 125, 31, 189, 94, 124, 41, 61, 73, 218, 169, 188, 227, 98, 251, 59, 252, 131, 44, 189, 245, 25, 122, 60, 1, 57, 12, 189, 108, 136, 33, 189, 150, 29, 149, 60, 85, 167, 153, 59, 226, 240, 229, 59, 86, 187, 177, 60, 41, 40, 17, 61, 228, 54, 13, 189, 232, 138, 174, 188, 249, 35, 12, 189, 226, 224, 223, 188, 226, 157, 182, 60, 116, 227, 44, 61, 115, 217, 38, 189, 102, 228, 61, 188, 224, 65, 112, 187, 114, 152, 9, 61, 168, 234, 144, 60, 89, 51, 81, 187, 83, 232, 142, 60, 56, 226, 39, 61, 19, 199, 128, 188, 112, 187, 55, 188, 115, 141, 163, 60, 159, 185, 148, 187, 134, 63, 251, 60, 195, 221, 153, 188, 231, 77, 140, 188, 220, 126, 235, 186, 2, 98, 51, 60, 238, 164, 14, 187, 122, 84, 9, 189, 100, 185, 65, 59, 77, 116, 34, 189, 219, 46, 174, 60, 26, 115, 156, 58, 214, 2, 36, 188, 48, 173, 4, 61, 42, 27, 47, 60, 57, 145, 3, 59, 0, 20, 136, 188, 131, 141, 246, 60, 20, 144, 44, 189, 33, 177, 254, 60, 115, 227, 43, 61, 158, 69, 56, 60, 145, 222, 164, 188, 175, 191, 113, 59, 153, 251, 251, 60, 30, 245, 170, 186, 185, 58, 18, 59, 255, 121, 41, 60, 173, 101, 109, 188, 103, 100, 84, 188, 50, 1, 120, 60, 201, 153, 206, 188, 139, 28, 130, 60, 70, 38, 88, 60, 26, 70, 23, 61, 163, 50, 116, 60, 31, 155, 139, 188, 149, 148, 185, 60, 11, 240, 199, 60, 58, 38, 171, 188, 174, 162, 176, 60, 198, 206, 179, 60, 82, 6, 98, 59, 22, 164, 208, 188, 138, 201, 191, 60, 167, 182, 88, 60, 201, 205, 31, 61, 213, 187, 211, 188, 170, 193, 166, 60, 223, 240, 170, 59, 151, 168, 231, 188, 74, 207, 158, 188, 125, 143, 102, 186, 87, 4, 5, 61, 212, 78, 188, 60, 141, 139, 34, 61, 20, 20, 232, 59, 194, 194, 9, 60, 122, 157, 242, 59, 59, 69, 28, 61, 74, 227, 221, 187, 176, 157, 14, 189, 65, 194, 36, 60, 76, 67, 164, 60, 78, 141, 54, 188, 233, 93, 36, 61, 10, 21, 64, 60, 4, 156, 24, 188, 146, 190, 237, 185, 188, 121, 246, 188, 31, 195, 50, 59, 252, 147, 82, 60, 93, 46, 38, 189, 165, 201, 25, 60, 129, 23, 130, 60, 73, 235, 24, 189, 106, 100, 5, 61, 223, 218, 218, 60, 164, 130, 140, 58, 53, 149, 141, 60, 197, 15, 45, 188, 0, 185, 10, 61, 149, 183, 22, 61, 117, 62, 189, 188, 82, 241, 243, 188, 29, 219, 2, 61, 89, 215, 211, 60, 175, 65, 45, 188, 37, 45, 202, 188, 30, 46, 123, 188, 122, 186, 22, 189, 53, 5, 178, 60, 221, 161, 38, 61, 134, 65, 182, 60, 34, 244, 7, 61, 187, 146, 173, 60, 68, 147, 33, 189, 61, 68, 191, 187, 153, 244, 211, 60, 140, 167, 208, 188, 149, 85, 42, 189, 20, 96, 237, 60, 12, 222, 72, 188, 93, 34, 82, 188, 174, 246, 15, 61, 79, 120, 179, 187, 51, 120, 164, 186, 207, 167, 154, 188, 2, 1, 40, 189, 66, 16, 60, 188, 54, 129, 10, 187, 202, 176, 85, 60, 135, 46, 79, 188, 245, 0, 212, 59, 104, 84, 18, 189, 1, 157, 42, 189, 177, 56, 218, 188, 170, 58, 217, 188, 102, 193, 25, 189, 225, 253, 47, 188, 78, 44, 20, 61, 2, 165, 137, 187, 247, 211, 16, 189, 172, 15, 190, 186, 120, 36, 1, 189, 137, 73, 182, 188, 91, 31, 45, 189, 5, 68, 42, 60, 135, 109, 139, 187, 112, 228, 160, 60, 46, 153, 189, 60, 226, 94, 233, 188, 124, 34, 37, 189, 80, 73, 139, 60, 15, 170, 168, 60, 109, 226, 99, 188, 129, 123, 24, 61, 158, 4, 62, 188, 229, 51, 214, 187, 62, 141, 157, 188, 202, 43, 167, 187, 70, 202, 240, 59, 82, 62, 175, 59, 188, 108, 20, 61, 244, 147, 140, 188, 21, 201, 239, 60, 69, 159, 205, 188, 54, 81, 208, 188, 189, 126, 44, 61, 65, 198, 124, 60, 169, 113, 66, 60, 218, 232, 1, 189, 77, 52, 5, 189, 73, 41, 245, 188, 193, 98, 251, 60, 239, 48, 0, 61, 235, 154, 93, 188, 112, 188, 4, 61, 173, 102, 167, 60, 230, 130, 244, 188, 139, 177, 146, 60, 120, 29, 65, 59, 107, 16, 161, 187, 170, 5, 194, 188, 108, 186, 149, 60, 96, 138, 128, 60, 93, 164, 177, 188, 254, 197, 231, 188, 84, 122, 41, 61, 165, 109, 103, 188, 46, 41, 77, 59, 146, 30, 17, 61, 58, 53, 38, 187, 147, 202, 13, 61, 217, 116, 229, 188, 159, 238, 126, 187, 183, 252, 56, 188, 186, 240, 3, 189, 105, 48, 186, 60, 19, 160, 189, 188, 44, 63, 186, 188, 173, 190, 68, 188, 43, 17, 160, 60, 224, 157, 37, 61, 117, 207, 33, 61, 223, 74, 0, 61, 238, 236, 205, 188, 91, 35, 213, 188, 203, 240, 251, 60, 231, 91, 131, 188, 107, 44, 3, 61, 11, 188, 30, 188, 213, 186, 32, 189, 108, 114, 88, 60, 101, 61, 75, 188, 126, 33, 153, 187, 175, 197, 159, 60, 104, 57, 147, 187, 225, 33, 153, 188, 179, 247, 142, 58, 176, 160, 142, 188, 41, 140, 119, 60, 134, 102, 35, 187, 106, 240, 182, 188, 106, 205, 19, 61, 220, 96, 180, 60, 156, 239, 4, 187, 20, 126, 40, 61, 14, 181, 8, 61, 24, 130, 23, 60, 145, 200, 237, 187, 228, 104, 164, 188, 53, 202, 24, 61, 138, 185, 28, 189, 162, 200, 24, 189, 138, 151, 97, 188, 27, 18, 22, 60, 148, 146, 14, 188, 75, 10, 127, 59, 80, 114, 226, 188, 118, 24, 213, 188, 50, 129, 78, 187, 5, 174, 4, 189, 41, 210, 27, 189, 3, 95, 118, 60, 133, 146, 99, 188, 249, 129, 27, 189, 232, 224, 223, 188, 3, 143, 199, 60, 130, 89, 135, 188, 153, 51, 39, 189, 118, 101, 132, 60, 38, 148, 13, 61, 60, 155, 146, 187, 27, 169, 208, 187, 85, 13, 25, 60, 134, 198, 11, 189, 96, 41, 174, 188, 139, 220, 211, 188, 89, 164, 38, 61, 204, 151, 126, 188, 240, 124, 153, 188, 143, 184, 15, 188, 12, 47, 144, 185, 147, 79, 135, 188, 241, 210, 76, 60, 250, 98, 16, 61, 72, 14, 32, 188, 192, 85, 92, 60, 103, 7, 175, 60, 146, 185, 186, 59, 84, 93, 212, 60, 124, 82, 93, 188, 205, 138, 15, 188, 249, 180, 81, 188, 195, 174, 194, 188, 101, 136, 98, 60, 143, 18, 46, 61, 177, 25, 133, 60, 217, 66, 6, 188, 32, 28, 19, 189, 202, 119, 89, 188, 190, 46, 75, 60, 52, 64, 204, 188, 154, 162, 234, 188, 45, 189, 160, 60, 120, 37, 168, 60, 50, 121, 184, 188, 58, 69, 174, 59, 185, 3, 39, 61, 53, 183, 106, 58, 157, 181, 238, 188, 214, 2, 11, 61, 106, 70, 153, 187, 25, 152, 3, 61, 177, 63, 105, 60, 196, 180, 155, 60, 233, 178, 33, 61, 73, 18, 238, 60, 213, 165, 4, 61, 140, 245, 17, 61, 123, 153, 211, 188, 104, 177, 182, 60, 56, 68, 4, 189, 180, 19, 57, 60, 133, 12, 10, 59, 162, 118, 252, 60, 207, 57, 250, 60, 15, 172, 25, 189, 187, 127, 31, 189, 20, 167, 123, 188, 106, 137, 207, 188, 248, 58, 123, 60, 114, 63, 5, 188, 205, 44, 208, 60, 182, 203, 89, 188, 176, 109, 149, 59, 156, 121, 130, 188, 78, 156, 99, 60, 45, 79, 231, 59, 111, 20, 187, 188, 53, 160, 155, 59, 133, 149, 25, 189, 88, 234, 30, 61, 129, 17, 97, 60, 146, 251, 174, 59, 75, 97, 8, 186, 179, 192, 37, 189, 104, 111, 253, 188, 64, 103, 11, 60, 108, 96, 192, 188, 88, 109, 219, 188, 165, 45, 229, 60, 172, 212, 98, 60, 149, 155, 48, 59, 14, 105, 14, 60, 115, 135, 33, 188, 71, 191, 194, 188, 49, 189, 183, 188, 3, 227, 33, 61, 58, 230, 7, 189, 141, 38, 15, 188, 60, 246, 108, 59, 229, 190, 233, 188, 71, 233, 149, 188, 25, 88, 29, 61, 84, 240, 93, 188, 78, 202, 91, 187, 209, 78, 97, 60, 24, 37, 12, 189, 134, 170, 39, 189, 66, 84, 150, 59, 92, 27, 209, 187, 161, 232, 166, 60, 112, 78, 144, 60, 64, 244, 45, 188, 26, 193, 77, 187, 145, 238, 123, 60, 196, 46, 175, 59, 228, 21, 51, 59, 222, 101, 195, 59, 101, 223, 24, 189, 60, 1, 141, 188, 148, 0, 7, 189, 12, 134, 213, 59, 207, 199, 135, 59, 60, 109, 230, 60, 36, 127, 165, 188, 186, 114, 157, 188, 161, 67, 2, 61, 243, 73, 255, 58, 238, 66, 169, 187, 196, 70, 22, 189, 248, 25, 207, 60, 31, 167, 152, 188, 174, 218, 13, 189, 191, 19, 41, 189, 129, 74, 175, 188, 55, 207, 37, 189, 169, 116, 2, 189, 208, 3, 38, 187, 73, 152, 182, 187, 112, 180, 51, 60, 229, 48, 24, 188, 223, 2, 74, 188, 3, 5, 222, 60, 81, 174, 44, 61, 48, 144, 167, 60, 217, 227, 44, 189, 35, 130, 225, 57, 136, 46, 42, 187, 34, 98, 150, 188, 125, 76, 132, 188, 83, 117, 240, 60, 123, 2, 254, 188, 112, 77, 110, 187, 246, 130, 229, 60, 243, 103, 33, 189, 147, 23, 25, 61, 52, 56, 3, 187, 5, 233, 135, 60, 249, 30, 215, 60, 159, 245, 6, 189, 182, 216, 3, 189, 202, 200, 86, 60, 97, 164, 9, 61, 34, 32, 157, 60, 83, 230, 19, 61, 61, 29, 33, 189, 193, 212, 187, 188, 118, 27, 183, 188, 99, 165, 39, 60, 112, 188, 169, 60, 52, 147, 234, 60, 221, 8, 13, 189, 231, 26, 6, 61, 182, 67, 173, 188, 121, 73, 77, 187, 21, 7, 251, 188, 76, 221, 194, 188, 113, 96, 184, 60, 185, 162, 156, 188, 209, 174, 160, 188, 250, 91, 28, 61, 69, 45, 203, 60, 63, 10, 117, 60, 130, 75, 152, 60, 146, 22, 160, 188, 217, 91, 153, 60, 203, 22, 188, 60, 93, 57, 172, 187, 180, 202, 58, 188, 124, 174, 240, 60, 156, 175, 125, 188, 197, 218, 149, 188, 22, 137, 9, 189, 136, 49, 23, 189, 83, 53, 30, 189, 214, 111, 7, 189, 226, 171, 45, 189, 147, 88, 41, 186, 241, 138, 108, 60, 188, 185, 212, 60, 22, 245, 129, 187, 227, 190, 215, 186, 14, 44, 132, 188, 159, 230, 106, 59, 0, 193, 218, 186, 63, 214, 99, 60, 20, 149, 25, 60, 7, 29, 245, 60, 218, 145, 180, 188, 64, 68, 27, 187, 199, 65, 39, 61, 243, 74, 130, 60, 84, 41, 111, 188, 218, 58, 79, 59, 48, 12, 73, 188, 54, 197, 9, 189, 133, 219, 11, 60, 195, 135, 193, 188, 241, 175, 134, 188, 43, 198, 54, 188, 230, 172, 149, 60, 102, 134, 217, 60, 57, 210, 29, 188, 237, 122, 3, 61, 129, 25, 14, 61, 45, 85, 60, 188, 212, 207, 42, 189, 183, 173, 233, 58, 153, 115, 191, 60, 136, 55, 4, 189, 123, 161, 233, 60, 152, 38, 2, 61, 166, 211, 61, 188, 162, 165, 5, 61, 128, 56, 129, 60, 97, 159, 132, 188, 72, 154, 233, 60, 63, 140, 220, 188, 159, 118, 57, 188, 179, 18, 139, 59, 226, 87, 150, 188, 95, 48, 40, 189, 144, 166, 14, 189, 101, 137, 93, 58, 109, 252, 129, 59, 97, 46, 205, 188, 132, 113, 202, 188, 50, 181, 197, 57, 176, 175, 0, 61, 176, 67, 145, 59, 189, 151, 158, 60, 186, 251, 187, 188, 255, 116, 180, 59, 122, 146, 10, 189, 27, 234, 168, 188, 208, 162, 252, 60, 192, 112, 210, 188, 63, 51, 1, 189, 43, 103, 7, 59, 251, 39, 88, 188, 240, 164, 53, 188, 60, 67, 153, 60, 176, 79, 157, 188, 169, 205, 44, 61, 140, 225, 27, 186, 108, 165, 151, 188, 124, 53, 27, 189, 163, 24, 3, 61, 111, 80, 215, 60, 28, 196, 10, 61, 183, 182, 148, 187, 223, 203, 253, 188, 249, 200, 224, 60, 102, 56, 105, 59, 95, 1, 153, 60, 131, 79, 143, 188, 231, 177, 253, 187, 51, 127, 116, 188, 217, 60, 53, 188, 40, 190, 30, 61, 199, 148, 143, 188, 132, 200, 30, 189, 151, 191, 14, 60, 169, 87, 34, 189, 233, 92, 12, 187, 169, 154, 229, 188, 136, 164, 153, 60, 235, 122, 243, 188, 192, 236, 67, 60, 193, 251, 207, 186, 124, 169, 35, 61, 47, 196, 229, 59, 17, 244, 49, 60, 161, 208, 42, 189, 184, 181, 13, 61, 62, 181, 206, 188, 37, 205, 189, 187, 54, 12, 222, 60, 102, 152, 134, 58, 63, 100, 207, 60, 65, 206, 66, 187, 75, 134, 29, 61, 15, 150, 10, 189, 255, 183, 218, 60, 140, 215, 89, 188, 121, 89, 83, 188, 242, 12, 254, 60, 103, 94, 118, 188, 252, 231, 225, 60, 46, 29, 0, 188, 69, 153, 27, 189, 1, 58, 161, 60, 202, 118, 3, 189, 225, 16, 233, 60, 148, 222, 28, 60, 185, 215, 173, 188, 255, 109, 129, 188, 51, 125, 44, 189, 200, 71, 17, 189, 140, 228, 12, 61, 125, 235, 16, 61, 243, 252, 39, 189, 154, 196, 247, 59, 182, 214, 194, 60, 74, 228, 191, 60, 132, 167, 110, 188, 209, 61, 26, 189, 179, 249, 195, 188, 53, 56, 255, 187, 70, 60, 180, 59, 243, 203, 225, 60, 219, 23, 178, 60, 167, 186, 228, 188, 231, 141, 130, 188, 98, 53, 168, 188, 208, 235, 139, 188, 44, 68, 26, 189, 21, 140, 241, 58, 12, 219, 70, 186, 160, 28, 142, 187, 151, 24, 208, 60, 143, 147, 246, 60, 106, 181, 63, 188, 110, 135, 158, 187, 134, 15, 102, 188, 65, 37, 46, 61, 31, 153, 3, 189, 116, 68, 30, 189, 96, 120, 94, 188, 134, 65, 72, 188, 63, 170, 164, 188, 161, 58, 159, 60, 3, 128, 16, 189, 222, 204, 128, 188, 126, 38, 36, 61, 91, 28, 198, 188, 91, 124, 40, 60, 4, 231, 192, 188, 115, 78, 18, 61, 49, 222, 219, 188, 43, 136, 42, 189, 125, 72, 73, 60, 32, 196, 159, 188, 58, 23, 189, 60, 32, 20, 25, 60, 206, 220, 36, 189, 220, 81, 43, 189, 203, 214, 1, 61, 147, 113, 168, 60, 13, 135, 18, 189, 199, 210, 240, 188, 129, 46, 205, 188, 129, 105, 20, 60, 10, 160, 203, 60, 93, 9, 12, 61, 96, 32, 18, 189, 201, 181, 40, 189, 215, 192, 115, 188, 70, 26, 17, 60, 236, 249, 162, 187, 98, 227, 153, 60, 88, 65, 239, 59, 117, 41, 36, 188, 87, 155, 66, 58, 67, 6, 40, 189, 110, 97, 77, 60, 196, 97, 7, 189, 141, 20, 228, 60, 82, 73, 43, 189, 151, 238, 2, 61, 77, 10, 148, 58, 202, 79, 30, 61, 34, 236, 232, 188, 230, 198, 19, 59, 27, 108, 202, 188, 127, 242, 251, 60, 222, 120, 173, 60, 31, 183, 224, 60, 217, 240, 219, 186, 134, 189, 172, 60, 170, 217, 224, 60, 239, 142, 15, 189, 158, 183, 33, 61, 126, 64, 11, 189, 12, 85, 23, 189, 55, 49, 241, 60, 30, 62, 47, 188, 236, 112, 185, 188, 156, 91, 20, 61, 163, 244, 143, 60, 59, 27, 208, 60, 5, 173, 247, 59, 193, 122, 122, 187, 86, 211, 147, 60, 139, 83, 249, 188, 236, 255, 192, 59, 177, 165, 245, 60, 217, 80, 252, 188, 186, 83, 64, 188, 171, 183, 21, 61, 95, 28, 29, 189, 176, 95, 255, 187, 206, 65, 99, 188, 133, 137, 169, 187, 2, 123, 125, 60, 220, 169, 214, 60, 78, 81, 18, 188, 201, 174, 35, 188, 146, 56, 184, 188, 153, 224, 73, 60, 78, 122, 137, 188, 68, 35, 106, 60, 207, 177, 9, 189, 173, 168, 167, 188, 16, 225, 61, 188, 133, 208, 155, 188, 195, 77, 126, 187, 243, 211, 20, 58, 54, 177, 223, 187, 147, 124, 14, 188, 201, 154, 27, 188, 48, 66, 140, 60, 155, 12, 54, 60, 48, 199, 225, 60, 63, 146, 217, 187, 117, 87, 234, 188, 74, 50, 205, 60, 92, 252, 130, 58, 17, 189, 116, 60, 224, 69, 45, 189, 107, 48, 16, 187, 118, 39, 34, 61, 140, 196, 58, 60, 90, 71, 145, 60, 103, 94, 119, 60, 162, 114, 101, 184, 78, 201, 144, 188, 1, 168, 25, 60, 134, 101, 161, 60, 160, 180, 98, 60, 15, 80, 69, 59, 5, 2, 195, 188, 95, 94, 167, 188, 64, 239, 252, 186, 114, 5, 14, 59, 143, 169, 203, 187, 34, 188, 83, 188, 129, 37, 0, 189, 59, 189, 30, 188, 30, 226, 216, 186, 79, 117, 94, 60, 132, 106, 141, 188, 133, 182, 211, 60, 220, 157, 186, 188, 88, 221, 146, 60, 106, 62, 10, 60, 251, 141, 58, 60, 90, 26, 31, 61, 115, 135, 182, 188, 254, 49, 117, 59, 175, 209, 240, 60, 140, 37, 121, 188, 214, 2, 36, 188, 99, 192, 45, 59, 100, 149, 176, 60, 120, 160, 157, 188, 95, 12, 130, 60, 8, 31, 243, 60, 96, 149, 246, 188, 78, 51, 181, 188, 97, 2, 43, 60, 224, 133, 228, 58, 246, 140, 242, 60, 35, 146, 183, 60, 221, 20, 123, 60, 47, 46, 145, 60, 76, 199, 16, 188, 30, 51, 221, 60, 47, 85, 204, 60, 64, 73, 241, 60, 146, 86, 58, 60, 63, 97, 174, 188, 226, 117, 7, 61, 114, 224, 31, 189, 189, 172, 9, 189, 78, 247, 79, 60, 233, 159, 172, 188, 115, 30, 14, 60, 57, 105, 36, 189, 52, 128, 242, 60, 204, 180, 98, 60, 83, 55, 1, 61, 30, 42, 35, 60, 105, 163, 219, 60, 220, 197, 68, 60, 41, 248, 251, 188, 85, 134, 162, 60, 222, 188, 99, 188, 194, 94, 19, 61, 203, 136, 7, 188, 165, 111, 145, 60, 51, 133, 117, 187, 253, 17, 18, 61, 83, 69, 209, 188, 230, 8, 4, 60, 78, 187, 227, 188, 251, 153, 223, 60, 192, 77, 33, 61, 199, 93, 181, 60, 161, 83, 131, 187, 35, 113, 39, 61, 106, 83, 10, 189, 82, 3, 34, 189, 242, 215, 100, 188, 134, 154, 41, 61, 29, 177, 171, 188, 247, 159, 35, 188, 246, 123, 12, 61, 156, 39, 207, 59, 105, 230, 31, 188, 249, 28, 64, 187, 35, 99, 42, 189, 26, 117, 252, 188, 128, 109, 235, 188, 44, 217, 105, 188, 6, 99, 98, 58, 125, 98, 211, 188, 24, 143, 6, 61, 146, 151, 251, 60, 12, 51, 98, 59, 221, 116, 17, 61, 116, 47, 196, 187, 90, 36, 30, 188, 43, 19, 7, 61, 70, 220, 70, 188, 117, 228, 175, 59, 120, 176, 29, 189, 59, 88, 174, 188, 127, 145, 200, 188, 136, 85, 26, 61, 35, 198, 10, 189, 29, 205, 139, 188, 126, 247, 230, 60, 228, 191, 253, 60, 86, 232, 143, 188, 121, 220, 22, 188, 99, 158, 31, 61, 28, 102, 2, 61, 152, 111, 211, 59, 177, 120, 135, 59, 114, 75, 76, 188, 123, 1, 150, 60, 158, 110, 15, 189, 225, 86, 29, 189, 103, 202, 141, 188, 8, 213, 218, 60, 44, 130, 211, 60, 254, 33, 240, 60, 14, 43, 84, 188, 120, 174, 86, 188, 241, 214, 44, 188, 166, 168, 173, 186, 154, 135, 171, 60, 10, 103, 50, 59, 53, 190, 4, 61, 219, 165, 36, 189, 197, 136, 218, 60, 219, 35, 61, 60, 74, 246, 89, 59, 101, 233, 197, 60, 5, 253, 26, 61, 188, 228, 103, 188, 135, 246, 229, 188, 78, 129, 218, 188, 50, 124, 13, 189, 19, 208, 26, 188, 186, 236, 255, 188, 92, 75, 63, 60, 78, 117, 5, 61, 210, 169, 199, 58, 178, 25, 32, 188, 245, 233, 119, 60, 111, 24, 209, 60, 60, 8, 213, 58, 50, 194, 220, 188, 54, 123, 31, 60, 122, 111, 153, 60, 6, 92, 204, 188, 110, 189, 250, 60, 44, 6, 19, 189, 114, 213, 10, 61, 101, 108, 29, 189, 137, 249, 182, 188, 48, 42, 48, 60, 219, 206, 95, 187, 60, 118, 25, 188, 166, 84, 8, 61, 11, 121, 51, 60, 230, 92, 238, 59, 164, 25, 132, 60, 77, 171, 236, 187, 247, 43, 85, 59, 80, 87, 172, 188, 64, 125, 32, 189, 210, 18, 252, 188, 79, 83, 42, 188, 119, 142, 6, 59, 148, 175, 133, 59, 195, 162, 45, 188, 99, 72, 19, 61, 147, 36, 211, 188, 99, 207, 227, 188, 64, 254, 17, 59, 185, 96, 134, 60, 16, 34, 216, 188, 92, 124, 123, 60, 95, 43, 34, 61, 96, 110, 120, 60, 78, 249, 38, 61, 205, 23, 217, 60, 168, 144, 252, 188, 47, 51, 215, 60, 44, 180, 215, 59, 109, 31, 197, 187, 204, 81, 193, 188, 168, 92, 193, 59, 194, 3, 143, 60, 82, 45, 16, 189, 162, 181, 89, 186, 83, 170, 111, 188, 105, 22, 254, 188, 73, 161, 97, 188, 46, 126, 223, 188, 235, 86, 13, 189, 179, 213, 226, 188, 77, 233, 153, 186, 157, 104, 36, 60, 123, 18, 204, 60, 42, 195, 242, 188, 79, 87, 16, 61, 196, 157, 220, 188, 164, 85, 90, 188, 236, 144, 20, 59, 83, 131, 245, 186, 162, 146, 179, 188, 233, 1, 241, 188, 78, 27, 6, 189, 62, 209, 221, 60, 0, 186, 138, 188, 193, 12, 30, 189, 33, 41, 10, 188, 150, 9, 42, 189, 38, 176, 7, 60, 213, 15, 128, 188, 9, 140, 173, 59, 245, 107, 200, 188, 144, 190, 250, 59, 71, 7, 209, 59, 105, 24, 7, 60, 165, 114, 86, 60, 139, 21, 63, 185, 157, 142, 8, 61, 197, 239, 248, 60, 185, 16, 44, 189, 11, 203, 168, 60, 19, 41, 242, 60, 155, 59, 229, 60, 158, 61, 37, 189, 236, 102, 100, 60, 176, 125, 26, 189, 180, 174, 21, 189, 16, 159, 9, 189, 84, 195, 150, 187, 9, 255, 142, 60, 68, 222, 156, 60, 4, 25, 97, 60, 195, 137, 175, 188, 234, 228, 207, 60, 72, 132, 203, 188, 212, 16, 172, 188, 223, 204, 142, 60, 20, 129, 133, 188, 13, 77, 15, 60, 212, 171, 7, 61, 70, 127, 140, 60, 21, 68, 174, 188, 53, 33, 165, 187, 238, 64, 93, 59, 120, 159, 16, 61, 158, 164, 196, 188, 209, 123, 156, 60, 1, 121, 198, 187, 205, 245, 194, 188, 82, 38, 232, 188, 158, 84, 226, 188, 94, 219, 16, 189, 215, 71, 94, 188, 91, 10, 43, 61, 156, 19, 22, 61, 147, 234, 41, 61, 224, 166, 74, 187, 131, 47, 24, 189, 106, 180, 5, 61, 30, 169, 34, 188, 178, 82, 14, 61, 38, 125, 207, 188, 77, 163, 78, 58, 220, 5, 70, 188, 160, 201, 46, 61, 210, 204, 130, 60, 214, 227, 97, 186, 123, 59, 203, 60, 239, 224, 15, 61, 102, 23, 7, 189, 231, 217, 23, 189, 42, 114, 129, 188, 178, 25, 199, 60, 121, 15, 177, 188, 229, 60, 36, 189, 218, 5, 67, 60, 79, 115, 89, 60, 106, 175, 34, 61, 41, 236, 166, 60, 128, 99, 44, 61, 212, 157, 240, 187, 95, 100, 71, 60, 120, 195, 241, 188, 121, 181, 18, 187, 124, 156, 230, 187, 240, 242, 229, 188, 248, 246, 227, 60, 153, 62, 12, 188, 179, 91, 18, 61, 96, 248, 91, 60, 226, 79, 196, 60, 37, 122, 93, 188, 251, 26, 221, 187, 251, 61, 35, 189, 235, 183, 170, 188, 1, 119, 18, 186, 251, 167, 164, 188, 55, 179, 180, 59, 171, 127, 170, 60, 171, 51, 23, 61, 250, 59, 15, 189, 179, 191, 66, 187, 185, 151, 44, 187, 159, 141, 178, 60, 27, 4, 86, 60, 53, 252, 11, 60, 19, 96, 207, 60, 230, 96, 189, 188, 170, 79, 141, 60, 148, 26, 8, 60, 85, 171, 36, 189, 236, 8, 58, 60, 24, 188, 229, 188, 105, 162, 141, 60, 14, 192, 10, 188, 208, 58, 45, 189, 156, 7, 64, 187, 202, 184, 175, 187, 190, 77, 22, 61, 154, 21, 252, 188, 142, 5, 5, 189, 182, 9, 158, 188, 148, 231, 24, 189, 232, 213, 55, 59, 170, 193, 16, 61, 97, 9, 0, 189, 89, 43, 30, 189, 40, 213, 246, 59, 104, 136, 12, 61, 61, 110, 4, 188, 149, 50, 45, 59, 139, 55, 246, 188, 230, 10, 157, 186, 115, 1, 225, 186, 190, 100, 148, 188, 15, 20, 186, 186, 70, 157, 148, 60, 189, 249, 28, 189, 112, 62, 107, 60, 63, 133, 196, 60, 7, 65, 174, 188, 33, 50, 233, 60, 87, 20, 168, 60, 145, 107, 85, 188, 194, 54, 36, 61, 120, 1, 91, 187, 80, 158, 12, 189, 243, 152, 37, 61, 85, 20, 238, 60, 221, 206, 210, 187, 118, 0, 25, 61, 228, 137, 254, 188, 33, 235, 6, 189, 182, 34, 43, 61, 243, 24, 73, 187, 61, 254, 150, 59, 132, 241, 34, 189, 7, 44, 234, 188, 1, 160, 1, 60, 80, 13, 35, 61, 144, 51, 104, 60, 97, 141, 160, 60, 217, 233, 44, 189, 221, 42, 255, 60, 144, 192, 200, 60, 69, 141, 24, 188, 21, 82, 192, 188, 68, 17, 5, 189, 240, 65, 146, 188, 209, 248, 19, 189, 74, 218, 179, 188, 164, 196, 32, 189, 201, 145, 46, 61, 30, 251, 0, 59, 91, 91, 103, 60, 36, 18, 21, 61, 6, 248, 193, 60, 8, 241, 88, 60, 177, 245, 112, 188, 53, 211, 230, 186, 50, 23, 8, 61, 148, 198, 157, 60, 204, 61, 55, 187, 126, 225, 226, 59, 221, 217, 17, 188, 247, 17, 89, 188, 34, 149, 32, 188, 136, 172, 38, 61, 34, 204, 22, 61, 68, 25, 176, 60, 22, 153, 92, 188, 26, 52, 32, 61, 184, 133, 186, 188, 224, 48, 114, 187, 222, 108, 34, 188, 126, 70, 6, 189, 140, 161, 31, 61, 139, 165, 135, 59, 230, 105, 31, 61, 61, 148, 191, 188, 150, 63, 214, 60, 96, 74, 186, 187, 149, 211, 237, 60, 175, 210, 117, 188, 83, 157, 200, 187, 226, 214, 87, 188, 255, 189, 92, 59, 53, 65, 254, 188, 32, 17, 187, 60, 167, 39, 32, 189, 233, 194, 35, 61, 96, 106, 171, 188, 125, 190, 16, 60, 118, 73, 189, 187, 13, 184, 245, 187, 92, 254, 7, 189, 87, 10, 190, 60, 218, 52, 218, 187, 148, 16, 70, 188, 168, 127, 194, 188, 88, 165, 192, 184, 217, 203, 92, 60, 56, 143, 51, 188, 242, 98, 18, 189, 127, 63, 87, 60, 252, 235, 133, 187, 134, 193, 134, 188, 35, 164, 70, 59, 226, 207, 70, 60, 118, 89, 29, 189, 129, 16, 197, 60, 216, 167, 21, 186, 225, 146, 152, 187, 126, 146, 2, 60, 37, 213, 216, 60, 129, 223, 100, 60, 159, 81, 156, 188, 119, 52, 12, 61, 56, 175, 177, 188, 154, 107, 148, 188, 140, 111, 35, 189, 142, 172, 94, 188, 19, 60, 31, 61, 99, 252, 215, 187, 10, 237, 229, 188, 53, 187, 1, 187, 211, 246, 231, 188, 90, 11, 177, 188, 18, 50, 187, 59, 147, 129, 246, 59, 250, 69, 30, 60, 20, 155, 211, 60, 182, 75, 120, 188, 168, 101, 103, 188, 11, 55, 0, 188, 148, 22, 17, 189, 222, 250, 202, 188, 145, 247, 229, 59, 95, 121, 227, 188, 170, 12, 176, 188, 13, 252, 105, 186, 255, 20, 230, 188, 202, 7, 158, 60, 148, 41, 231, 188, 141, 141, 220, 188, 173, 82, 167, 187, 191, 249, 241, 59, 91, 15, 48, 188, 237, 24, 81, 188, 218, 210, 19, 189, 83, 47, 128, 188, 236, 119, 246, 187, 221, 61, 34, 189, 49, 77, 196, 188, 144, 41, 116, 187, 241, 31, 150, 187, 143, 54, 19, 189, 251, 52, 63, 60, 85, 21, 243, 60, 243, 214, 51, 188, 63, 55, 155, 188, 250, 214, 146, 188, 49, 126, 0, 61, 95, 33, 21, 61, 252, 217, 4, 61, 132, 92, 45, 188, 227, 239, 165, 58, 250, 5, 195, 59, 230, 249, 1, 61, 154, 16, 122, 188, 69, 88, 36, 189, 7, 166, 60, 188, 157, 18, 147, 59, 24, 175, 37, 189, 18, 162, 217, 188, 93, 214, 41, 189, 135, 110, 140, 186, 65, 64, 33, 61, 206, 116, 1, 59, 121, 72, 187, 60, 86, 17, 125, 188, 31, 245, 235, 60, 103, 226, 185, 60, 30, 42, 113, 60, 224, 3, 18, 189, 195, 83, 7, 61, 212, 231, 132, 188, 149, 11, 22, 61, 85, 192, 63, 187, 232, 170, 28, 61, 71, 113, 2, 189, 61, 191, 47, 60, 3, 146, 150, 188, 121, 199, 93, 60, 249, 122, 153, 60, 190, 217, 0, 60, 62, 41, 131, 59, 216, 154, 50, 60, 42, 56, 247, 60, 46, 19, 13, 61, 37, 213, 170, 188, 25, 92, 190, 60, 5, 9, 6, 61, 44, 191, 32, 61, 37, 40, 161, 188, 196, 70, 111, 60, 177, 152, 64, 60, 251, 72, 237, 60, 231, 106, 17, 188, 190, 222, 234, 60, 23, 202, 72, 188, 185, 236, 181, 60, 215, 240, 180, 59, 25, 214, 42, 189, 79, 231, 106, 188, 213, 178, 222, 60, 25, 138, 46, 188, 75, 74, 38, 60, 110, 92, 46, 61, 98, 95, 159, 187, 2, 11, 41, 61, 244, 55, 247, 187, 130, 132, 44, 189, 111, 236, 11, 188, 162, 208, 25, 189, 79, 175, 205, 188, 107, 170, 205, 188, 247, 179, 31, 189, 102, 151, 207, 187, 32, 181, 179, 58, 158, 64, 243, 58, 251, 244, 73, 60, 56, 220, 13, 188, 65, 79, 137, 60, 50, 79, 161, 60, 210, 53, 200, 188, 129, 135, 143, 186, 235, 135, 242, 188, 61, 239, 44, 61, 153, 123, 109, 188, 55, 72, 211, 60, 183, 181, 5, 60, 66, 51, 109, 188, 156, 160, 146, 59, 253, 96, 44, 189, 13, 168, 149, 188, 89, 183, 151, 188, 51, 11, 227, 60, 204, 228, 84, 188, 83, 171, 155, 187, 195, 197, 195, 188, 196, 146, 236, 188, 242, 211, 220, 188, 162, 139, 17, 189, 207, 107, 189, 60, 19, 71, 86, 186, 123, 191, 251, 188, 171, 196, 55, 59, 235, 105, 133, 60, 72, 13, 10, 61, 93, 170, 225, 188, 188, 41, 230, 60, 160, 160, 33, 188, 205, 50, 107, 60, 233, 238, 156, 188, 243, 148, 209, 60, 20, 22, 239, 188, 71, 63, 13, 189, 49, 173, 41, 61, 188, 57, 61, 188, 63, 162, 2, 189, 95, 28, 29, 61, 226, 227, 207, 60, 149, 44, 69, 188, 76, 120, 15, 61, 139, 214, 42, 61, 9, 72, 162, 60, 146, 57, 158, 188, 253, 101, 12, 61, 251, 145, 225, 60, 155, 202, 74, 187, 39, 16, 28, 61, 121, 178, 34, 188, 181, 2, 18, 61, 227, 62, 14, 60, 244, 185, 151, 60, 48, 47, 201, 187, 112, 145, 35, 189, 191, 110, 135, 188, 168, 36, 75, 188, 192, 143, 99, 60, 49, 171, 46, 189, 146, 129, 106, 188, 8, 247, 227, 60, 10, 159, 198, 60, 67, 213, 169, 188, 198, 65, 221, 187, 152, 243, 4, 188, 59, 75, 72, 188, 6, 124, 180, 187, 194, 254, 156, 60, 195, 171, 166, 188, 16, 104, 145, 60, 210, 138, 79, 188, 182, 21, 74, 60, 17, 28, 17, 188, 214, 234, 244, 188, 172, 48, 227, 186, 111, 109, 85, 59, 21, 0, 33, 187, 11, 171, 155, 60, 203, 123, 45, 189, 74, 100, 250, 60, 213, 8, 253, 188, 49, 211, 202, 188, 26, 182, 41, 189, 80, 59, 18, 61, 140, 231, 133, 59, 143, 63, 50, 59, 154, 252, 245, 60, 102, 198, 3, 60, 243, 141, 202, 186, 118, 36, 39, 61, 141, 93, 234, 188, 236, 148, 137, 60, 253, 221, 176, 187, 71, 228, 80, 60, 58, 15, 110, 188, 67, 183, 213, 188, 14, 98, 5, 189, 121, 137, 93, 60, 8, 170, 166, 188, 43, 22, 199, 60, 21, 107, 33, 189, 119, 226, 163, 188, 142, 17, 38, 189, 176, 38, 16, 61, 123, 38, 199, 59, 191, 48, 116, 60, 184, 73, 255, 188, 116, 15, 204, 60, 164, 197, 129, 187, 118, 35, 104, 60, 6, 203, 136, 187, 45, 187, 24, 61, 92, 106, 5, 59, 108, 116, 208, 60, 153, 30, 45, 61, 210, 129, 77, 60, 154, 14, 35, 61, 185, 247, 90, 186, 160, 234, 213, 188, 72, 10, 225, 60, 175, 15, 132, 60, 117, 72, 46, 188, 53, 76, 221, 187, 69, 21, 112, 60, 181, 23, 133, 60, 166, 201, 45, 188, 16, 84, 218, 60, 135, 199, 101, 59, 244, 165, 166, 187, 187, 84, 182, 188, 104, 27, 141, 60, 182, 167, 157, 188, 108, 233, 133, 187, 19, 157, 25, 60, 47, 33, 105, 188, 91, 13, 22, 60, 106, 137, 18, 61, 116, 101, 12, 189, 43, 151, 235, 60, 197, 230, 249, 188, 16, 69, 172, 188, 137, 1, 184, 188, 91, 125, 195, 59, 173, 106, 134, 188, 48, 247, 50, 60, 65, 206, 244, 60, 95, 19, 79, 59, 69, 114, 24, 60, 167, 209, 159, 60, 113, 200, 217, 188, 215, 124, 220, 188, 185, 56, 229, 59, 78, 231, 207, 60, 101, 48, 44, 189, 135, 187, 32, 189, 102, 174, 22, 189, 113, 34, 161, 188, 164, 150, 149, 188, 40, 44, 94, 60, 167, 167, 35, 61, 250, 199, 169, 188, 134, 182, 210, 60, 141, 216, 166, 187, 19, 75, 54, 188, 82, 212, 202, 59, 104, 83, 31, 61, 242, 103, 181, 188, 103, 120, 35, 189, 121, 87, 75, 186, 183, 219, 97, 59, 32, 115, 197, 60, 137, 156, 12, 189, 246, 168, 23, 189, 202, 21, 31, 61, 10, 121, 69, 59, 33, 131, 58, 58, 182, 220, 12, 189, 113, 123, 5, 61, 237, 59, 186, 188, 131, 154, 20, 188, 94, 107, 50, 188, 31, 10, 39, 189, 176, 117, 25, 189, 164, 237, 43, 61, 19, 50, 17, 61, 112, 49, 20, 60, 110, 183, 36, 61, 157, 249, 222, 188, 194, 145, 213, 59, 52, 47, 20, 189, 1, 186, 148, 60, 17, 51, 217, 60, 161, 250, 3, 61, 151, 35, 16, 189, 141, 172, 11, 189, 222, 186, 89, 60, 228, 72, 43, 189, 23, 22, 27, 189, 195, 174, 6, 187, 25, 254, 196, 59, 155, 138, 36, 189, 130, 64, 26, 189, 99, 248, 41, 60, 99, 161, 186, 188, 121, 31, 227, 188, 54, 84, 228, 59, 180, 187, 15, 189, 151, 150, 41, 189, 214, 180, 234, 58, 58, 99, 148, 187, 127, 112, 42, 59, 253, 111, 207, 188, 188, 244, 140, 188, 240, 153, 36, 61, 10, 224, 251, 188, 4, 55, 254, 188, 178, 90, 170, 187, 231, 49, 171, 59, 86, 192, 223, 60, 52, 41, 217, 58, 193, 39, 238, 188, 28, 50, 46, 60, 188, 47, 183, 60, 47, 63, 239, 188, 12, 117, 2, 61, 90, 163, 161, 60, 232, 146, 21, 61, 209, 1, 110, 60, 160, 5, 243, 188, 35, 181, 89, 58, 42, 12, 165, 60, 4, 185, 214, 186, 109, 18, 210, 188, 89, 53, 167, 188, 51, 78, 18, 61, 27, 28, 26, 61, 241, 129, 9, 61, 154, 70, 137, 188, 249, 10, 33, 189, 175, 186, 34, 189, 215, 244, 169, 188, 230, 229, 60, 60, 151, 16, 34, 61, 187, 198, 151, 188, 195, 232, 242, 188, 35, 77, 44, 61, 47, 173, 15, 61, 25, 41, 25, 60, 28, 183, 223, 60, 100, 118, 113, 60, 209, 117, 185, 60, 71, 72, 146, 57, 37, 86, 177, 59, 143, 166, 194, 188, 120, 233, 211, 59, 142, 43, 76, 59, 3, 93, 20, 186, 135, 35, 155, 60, 65, 17, 186, 60, 85, 116, 193, 59, 2, 136, 46, 61, 28, 11, 43, 57, 209, 223, 134, 60, 5, 160, 228, 187, 198, 26, 6, 189, 40, 143, 42, 189, 150, 53, 165, 188, 99, 179, 94, 188, 213, 158, 194, 60, 125, 104, 21, 189, 154, 111, 13, 189, 132, 85, 127, 188, 232, 69, 12, 60, 188, 176, 10, 189, 39, 111, 53, 59, 83, 181, 46, 59, 44, 171, 209, 60, 236, 20, 197, 60, 1, 114, 50, 60, 191, 132, 32, 61, 165, 129, 33, 61, 22, 156, 20, 189, 3, 129, 253, 188, 244, 68, 174, 60, 119, 204, 252, 60, 87, 55, 99, 60, 198, 188, 130, 60, 87, 25, 0, 188, 43, 172, 176, 59, 0, 228, 254, 188, 169, 107, 9, 187, 119, 132, 11, 189, 32, 214, 4, 61, 88, 179, 26, 61, 61, 222, 197, 187, 99, 41, 195, 60, 252, 181, 136, 60, 69, 105, 36, 59, 132, 148, 30, 59, 142, 116, 44, 61, 105, 144, 215, 184, 195, 136, 117, 188, 122, 100, 200, 59, 19, 249, 42, 61, 221, 198, 163, 188, 220, 34, 43, 189, 115, 110, 165, 59, 237, 127, 171, 58, 209, 139, 27, 189, 20, 102, 28, 189, 14, 49, 28, 188, 182, 23, 135, 60, 140, 126, 44, 189, 34, 218, 40, 61, 208, 238, 42, 61, 45, 243, 196, 188, 150, 118, 34, 189, 225, 218, 1, 187, 208, 203, 188, 60, 76, 170, 25, 61, 127, 80, 197, 186, 76, 251, 146, 188, 100, 154, 189, 188, 82, 54, 134, 187, 212, 192, 38, 188, 146, 233, 81, 59, 75, 133, 20, 189, 103, 109, 44, 189, 78, 184, 128, 187, 50, 164, 220, 59, 75, 228, 3, 61, 202, 201, 43, 61, 69, 44, 171, 188, 157, 46, 178, 188, 231, 53, 32, 61, 8, 49, 215, 188, 29, 245, 246, 188, 175, 1, 200, 187, 217, 101, 253, 59, 58, 37, 210, 58, 40, 57, 181, 188, 25, 87, 201, 188, 131, 159, 147, 59, 92, 234, 104, 188, 162, 182, 220, 188, 46, 199, 155, 60, 186, 91, 138, 59, 216, 98, 137, 188, 220, 191, 146, 60, 185, 232, 145, 60, 3, 49, 238, 58, 173, 59, 161, 60, 178, 105, 113, 188, 34, 220, 45, 61, 224, 95, 211, 60, 64, 37, 29, 61, 99, 72, 195, 60, 21, 16, 148, 59, 122, 231, 36, 189, 138, 129, 67, 60, 33, 228, 155, 188, 99, 149, 206, 188, 43, 211, 83, 60, 66, 240, 14, 189, 157, 172, 218, 188, 166, 183, 95, 188, 29, 255, 153, 188, 172, 218, 4, 61, 235, 115, 139, 60, 11, 9, 185, 60, 45, 204, 182, 188, 175, 148, 148, 188, 141, 130, 170, 188, 46, 18, 242, 60, 244, 215, 43, 61, 204, 54, 171, 60, 23, 131, 70, 60, 94, 85, 137, 60, 146, 225, 41, 60, 134, 191, 42, 61, 43, 77, 159, 188, 178, 160, 40, 61, 66, 253, 248, 188, 243, 68, 14, 61, 70, 242, 33, 188, 5, 173, 77, 60, 219, 196, 248, 60, 149, 52, 198, 188, 230, 39, 207, 60, 52, 105, 35, 189, 7, 27, 164, 187, 130, 63, 143, 60, 79, 174, 14, 189, 171, 69, 178, 188, 198, 11, 35, 189, 232, 232, 149, 187, 144, 15, 99, 59, 230, 132, 187, 60, 134, 182, 15, 61, 19, 87, 245, 60, 100, 110, 213, 188, 78, 228, 153, 184, 34, 121, 149, 60, 155, 125, 194, 186, 210, 167, 31, 189, 105, 255, 52, 188, 33, 165, 167, 60, 175, 142, 144, 187, 47, 183, 20, 188, 118, 116, 140, 60, 202, 43, 170, 60, 31, 89, 22, 189, 180, 234, 12, 61, 201, 116, 181, 188, 68, 1, 138, 188, 50, 168, 249, 60, 67, 174, 251, 60, 88, 163, 195, 60, 1, 49, 186, 60, 121, 55, 242, 60, 149, 177, 235, 187, 8, 68, 70, 60, 80, 2, 231, 188, 177, 24, 30, 61, 8, 26, 25, 61, 32, 249, 251, 186, 70, 170, 159, 188, 141, 119, 17, 61, 53, 201, 24, 61, 245, 184, 6, 189, 204, 18, 46, 60, 31, 135, 31, 189, 243, 246, 197, 60, 163, 190, 28, 61, 133, 177, 36, 189, 69, 5, 9, 189, 105, 223, 254, 59, 201, 37, 38, 61, 203, 88, 33, 189, 158, 33, 177, 60, 154, 187, 190, 188, 183, 141, 200, 188, 7, 185, 245, 60, 214, 121, 32, 60, 73, 117, 15, 189, 146, 106, 65, 60, 121, 248, 229, 188, 25, 90, 130, 187, 126, 74, 81, 